<unk>	0
<s>	0
</s>	0
▁а	-0
▁и	-1
әа	-2
ра	-3
еи	-4
ла	-5
ан	-6
әы	-7
ара	-8
ар	-9
ьы	-10
▁д	-11
▁А	-12
уа	-13
ҭа	-14
ны	-15
ьа	-16
ыр	-17
▁р	-18
еит	-19
▁иа	-20
оу	-21
ха	-22
қәа	-23
гьы	-24
тә	-25
▁с	-26
на	-27
ит	-28
▁у	-29
▁ҳ	-30
аа	-31
хь	-32
зы	-33
ма	-34
ҟа	-35
ыз	-36
шь	-37
▁"	-38
ба	-39
ԥс	-40
қә	-41
цәа	-42
ԥш	-43
хы	-44
ҳа	-45
иа	-46
▁з	-47
шәа	-48
ҳәа	-49
▁еи	-50
ыла	-51
ӡа	-52
ҵа	-53
оуп	-54
ҳә	-55
ын	-56
хьа	-57
▁ак	-58
▁ш	-59
аны	-60
▁И	-61
оит	-62
▁–	-63
ры	-64
жә	-65
да	-66
он	-67
ҿы	-68
▁У	-69
га	-70
гәы	-71
шә	-72
ри	-73
тәи	-74
."	-75
ым	-76
▁ҳәа	-77
хә	-78
ыл	-79
▁да	-80
гәа	-81
▁уа	-82
ша	-83
шьа	-84
ҩа	-85
дыр	-86
▁л	-87
ка	-88
оз	-89
са	-90
уп	-91
▁ам	-92
за	-93
▁ҳа	-94
тәы	-95
хәы	-96
▁ры	-97
жь	-98
гыла	-99
▁аб	-100
▁аха	-101
▁аа	-102
ана	-103
кәа	-104
▁аи	-105
ҩы	-106
уеит	-107
▁ир	-108
▁ра	-109
▁б	-110
жәа	-111
▁уи	-112
▁С	-113
зар	-114
..	-115
цә	-116
ом	-117
ус	-118
әын	-119
ҭы	-120
гь	-121
хәа	-122
▁Аԥс	-123
рҭ	-124
▁м	-125
ԥхьа	-126
лар	-127
▁на	-128
хьы	-129
уаз	-130
неи	-131
әыр	-132
ца	-133
гә	-134
▁иаа	-135
ст	-136
ықә	-137
уан	-138
▁аԥс	-139
егьы	-140
мҭа	-141
ԥа	-142
џь	-143
ҳәеит	-144
▁из	-145
▁ма	-146
▁са	-147
шьҭа	-148
кы	-149
ли	-150
ор	-151
тәа	-152
▁ды	-153
ҿа	-154
▁М	-155
▁ала	-156
ир	-157
▁иш	-158
уаа	-159
▁ар	-160
▁Аԥсны	-161
ызт	-162
ни	-163
▁ад	-164
▁аӡ	-165
▁Б	-166
ааи	-167
ҵә	-168
▁«	-169
▁иҟа	-170
▁ла	-171
▁Д	-172
▁ус	-173
гыл	-174
▁иара	-175
ура	-176
▁сы	-177
▁иҟ	-178
тәыла	-179
▁аҟ	-180
ыс	-181
▁ҟа	-182
әым	-183
ер	-184
ҭах	-185
▁зегьы	-186
сы	-187
ол	-188
кә	-189
нар	-190
▁ина	-191
ҽа	-192
▁зы	-193
бас	-194
жьы	-195
зи	-196
▁аус	-197
ҵәа	-198
ҟәа	-199
ҵара	-200
шьҭ	-201
▁К	-202
▁им	-203
▁Г	-204
зеи	-205
ен	-206
▁ап	-207
ет	-208
ала	-209
бар	-210
заа	-211
▁ах	-212
▁ара	-213
геит	-214
▁Ҳ	-215
хеит	-216
▁ан	-217
▁ахь	-218
▁аԥ	-219
▁ақ	-220
ҟьа	-221
▁Н	-222
бри	-223
▁Ш	-224
▁иры	-225
ес	-226
▁1	-227
▁ду	-228
▁Л	-229
▁еиԥш	-230
ԥсы	-231
рақәа	-232
зиа	-233
▁Уи	-234
▁аш	-235
қь	-236
▁(	-237
циа	-238
лак	-239
▁даа	-240
▁Р	-241
▁ис	-242
ур	-243
▁аҩ	-244
хәыҷ	-245
еиԥш	-246
▁азы	-247
бжь	-248
▁ԥ	-249
...	-250
▁х	-251
жәы	-252
ҟь	-253
ықәса	-254
▁иан	-255
лы	-256
▁ана	-257
▁сара	-258
▁Е	-259
▁рзы	-260
та	-261
ӡам	-262
ди	-263
▁иб	-264
▁аҿы	-265
▁шә	-266
ҵы	-267
аргьы	-268
хын	-269
ча	-270
ас	-271
▁ха	-272
▁аз	-273
шьы	-274
ареи	-275
жәлар	-276
ов	-277
▁2	-278
егь	-279
лан	-280
▁ас	-281
ҳәы	-282
гара	-283
▁ама	-284
ҭыԥ	-285
ми	-286
ӷь	-287
кны	-288
қәеи	-289
леит	-290
ҟан	-291
хар	-292
рыс	-293
▁иҳәеит	-294
▁урҭ	-295
ҟә	-296
џьа	-297
ратә	-298
▁ил	-299
▁иу	-300
ҩаԥ	-301
▁—	-302
пы	-303
ек	-304
▁нас	-305
ҟәы	-306
ӷә	-307
ԥса	-308
▁шәа	-309
ти	-310
аи	-311
каа	-312
▁Аха	-313
лаз	-314
▁Иа	-315
кәын	-316
ль	-317
хәыц	-318
▁акә	-319
қәыр	-320
▁ауа	-321
анӡа	-322
кыл	-323
мызт	-324
▁Уа	-325
▁Х	-326
▁аны	-327
▁аҭа	-328
заара	-329
зым	-330
башь	-331
цәы	-332
шьҭахь	-333
▁З	-334
▁-	-335
▁аамҭа	-336
▁ал	-337
▁лы	-338
▁ин	-339
мыр	-340
гьа	-341
▁ауаа	-342
ҵеит	-343
▁ахы	-344
▁иҭа	-345
бы	-346
ҳара	-347
▁иха	-348
▁шықәса	-349
▁за	-350
▁реи	-351
▁иахьа	-352
ҩцәа	-353
ҩыз	-354
▁ихы	-355
ск	-356
▁ди	-357
▁иала	-358
▁ҭ	-359
ду	-360
әынҭ	-361
▁ауп	-362
бан	-363
▁к	-364
ҳәан	-365
реи	-366
гьыл	-367
▁ажәа	-368
▁иаз	-369
хьӡ	-370
хара	-371
▁иц	-372
хьан	-373
▁ашә	-374
қар	-375
кыла	-376
мы	-377
газ	-378
▁аф	-379
шы	-380
▁аҟны	-381
моу	-382
▁рыла	-383
▁ы	-384
го	-385
ӡом	-386
аб	-387
▁ари	-388
дыруа	-389
ҩык	-390
▁ац	-391
арц	-392
ҳәо	-393
цәажәа	-394
▁аҭ	-395
▁убас	-396
қәы	-397
арақәа	-398
▁хы	-399
ро	-400
ҟаз	-401
әынҭқар	-402
гәыр	-403
ԥҳа	-404
ло	-405
хаз	-406
лоит	-407
▁иҟоу	-408
ин	-409
ҭеи	-410
▁Ан	-411
џьы	-412
▁дыр	-413
▁н	-414
▁ша	-415
!"	-416
леи	-417
па	-418
те	-419
хоит	-420
▁аҵ	-421
▁В	-422
ган	-423
ҩны	-424
гылаз	-425
▁ҳара	-426
▁аҳ	-427
▁дна	-428
зыр	-429
▁уара	-430
ҭан	-431
маз	-432
лҵ	-433
▁аҽ	-434
раа	-435
ера	-436
хыр	-437
ҭазаара	-438
▁ц	-439
▁ии	-440
цәажә	-441
▁изы	-442
ызшәа	-443
▁игәы	-444
ҵәҟьа	-445
цәеи	-446
▁иаҳ	-447
▁бзиа	-448
▁абри	-449
ва	-450
▁дан	-451
хыс	-452
лыр	-453
ааит	-454
▁Ҭ	-455
▁ау	-456
хәаԥш	-457
▁Ар	-458
бра	-459
ҟоу	-460
ҭар	-461
ҳәоит	-462
▁Ам	-463
▁дыз	-464
▁џь	-465
рыстәыла	-466
▁иқә	-467
▁аԥсуа	-468
ӷәа	-469
ҵәы	-470
▁Ас	-471
▁ила	-472
рҭа	-473
гоит	-474
ԥхь	-475
ҟны	-476
ҷкәын	-477
лым	-478
▁инар	-479
стр	-480
ырҭ	-481
▁ааи	-482
ак	-483
ҵаз	-484
хо	-485
нак	-486
хьын	-487
бла	-488
▁агәа	-489
▁даҽа	-490
гылан	-491
цҳа	-492
▁зегь	-493
▁аҳа	-494
башьра	-495
ҳәыс	-496
шара	-497
ӡара	-498
▁иааи	-499
▁ҩ	-500
▁ашәа	-501
▁ахә	-502
▁Иара	-503
хны	-504
▁Аҟәа	-505
▁ҳаи	-506
▁амҩа	-507
▁ҭа	-508
▁иахь	-509
ҵаны	-510
▁акы	-511
ҳәара	-512
▁амш	-513
шаз	-514
ҟам	-515
ҳәаз	-516
заргьы	-517
тура	-518
баа	-519
ԥы	-520
▁акәын	-521
ент	-522
▁Аи	-523
цара	-524
гра	-525
▁П	-526
▁иҳа	-527
ганы	-528
▁ны	-529
қьа	-530
лиа	-531
▁.	-532
ҭақәа	-533
жьа	-534
▁Ҳа	-535
▁ҿы	-536
ку	-537
чы	-538
▁Ба	-539
▁агә	-540
▁рҿы	-541
▁Сара	-542
бо	-543
▁зны	-544
ик	-545
нистр	-546
ҵар	-547
▁ажә	-548
озар	-549
гәала	-550
▁Ма	-551
лара	-552
ҭеит	-553
▁има	-554
",	-555
▁Урыстәыла	-556
▁еиҳа	-557
тәан	-558
ҭәа	-559
▁аса	-560
ҭоу	-561
тор	-562
ӷәӷәа	-563
▁акыр	-564
ле	-565
лоу	-566
ҿи	-567
бара	-568
▁убри	-569
дәы	-570
▁рхы	-571
ланы	-572
ҳәар	-573
▁ашьа	-574
▁п	-575
ҟоуп	-576
ҩан	-577
ӘА	-578
▁ашьҭахь	-579
алақь	-580
▁ашь	-581
ԥшь	-582
лас	-583
▁ахьы	-584
ман	-585
▁Ус	-586
шәара	-587
▁аҩны	-588
ика	-589
ацәа	-590
▁аԥш	-591
бжьы	-592
кь	-593
шәы	-594
ҞӘА	-595
▁Да	-596
▁АҞӘА	-597
гылара	-598
▁Џ	-599
ӡы	-600
▁раԥхьа	-601
ааҭ	-602
▁ба	-603
▁дара	-604
хи	-605
чара	-606
▁шәы	-607
дара	-608
▁иҟаз	-609
рак	-610
▁иар	-611
ҵо	-612
▁ами	-613
▁рым	-614
ҷы	-615
омызт	-616
▁ины	-617
кьа	-618
хәыҷы	-619
ҽы	-620
ынӡа	-621
заашьа	-622
ҭын	-623
нӡа	-624
қәак	-625
хра	-626
▁Қ	-627
▁20	-628
▁агәы	-629
дгьыл	-630
би	-631
ӡакәа	-632
ды	-633
ҵаара	-634
хан	-635
▁иаҳа	-636
▁иша	-637
▁уажә	-638
▁шьа	-639
▁аҭыԥ	-640
▁гәы	-641
хыҵ	-642
ырха	-643
иԥа	-644
кәы	-645
▁ат	-646
▁Урҭ	-647
кыз	-648
рых	-649
қәи	-650
кол	-651
▁аӡә	-652
гылеит	-653
мар	-654
хьоу	-655
▁акәым	-656
▁ақы	-657
ӡаны	-658
ион	-659
мам	-660
▁Ари	-661
▁деи	-662
▁аан	-663
куа	-664
ҭаз	-665
▁сыз	-666
▁Т	-667
ҳар	-668
▁уаҳа	-669
▁инеи	-670
▁гәа	-671
аит	-672
ынтә	-673
беит	-674
лам	-675
▁аг	-676
им	-677
гыланы	-678
▁уажәы	-679
кгьы	-680
ӡба	-681
сыр	-682
▁S	-683
хым	-684
цәгьа	-685
сҭа	-686
▁ф	-687
ҵаа	-688
▁иԥ	-689
▁атәы	-690
ni	-691
хәыҷқәа	-692
).	-693
ҩна	-694
ut	-695
ам	-696
беи	-697
nik	-698
▁О	-699
put	-700
putnik	-701
ԥсҭазаара	-702
▁ҿыц	-703
уам	-704
▁ав	-705
сқәа	-706
ҭаху	-707
▁сгәы	-708
▁аҵа	-709
ӡо	-710
▁Sputnik	-711
ӷа	-712
ҭыр	-713
▁иеи	-714
ци	-715
▁аба	-716
гар	-717
▁иҟоуп	-718
▁рацәа	-719
▁аду	-720
ӷьа	-721
хьаз	-722
?"	-723
▁рахь	-724
▁ауаҩы	-725
▁жә	-726
ӡеит	-727
тәуп	-728
▁шы	-729
▁аҿ	-730
▁дры	-731
▁аар	-732
хьеит	-733
▁еила	-734
бжьара	-735
ем	-736
▁Аҳ	-737
ҳәоз	-738
▁абас	-739
уаҩ	-740
ҭра	-741
▁иаар	-742
▁аҵы	-743
ҟьаны	-744
▁иал	-745
▁Нас	-746
▁Анцәа	-747
▁лара	-748
цы	-749
ед	-750
ил	-751
гоз	-752
ат	-753
си	-754
▁ԥш	-755
Уи	-756
▁ақалақь	-757
▁Ԥ	-758
▁дыш	-759
▁Аб	-760
еин	-761
ҳабы	-762
қьы	-763
▁сан	-764
пу	-765
кит	-766
ԥшуа	-767
▁ес	-768
▁ака	-769
ҵан	-770
▁маҷ	-771
хит	-772
ӡыр	-773
▁Ч	-774
▁ишы	-775
▁Ж	-776
▁аҳәа	-777
лон	-778
▁аԥхьа	-779
▁егьы	-780
ҟара	-781
▁ани	-782
▁акгьы	-783
▁ҵа	-784
▁иана	-785
▁даара	-786
▁аӡәы	-787
ҵоит	-788
▁Ра	-789
боит	-790
рц	-791
▁атәыла	-792
ев	-793
ҿын	-794
то	-795
хыз	-796
арҭ	-797
доу	-798
▁Са	-799
▁аӡы	-800
ӷьы	-801
ԥха	-802
▁19	-803
ари	-804
▁адыр	-805
ҩаԥыс	-806
зара	-807
▁рха	-808
▁аҵара	-809
шықәса	-810
гылазаашьа	-811
▁ажәлар	-812
гон	-813
▁ада	-814
▁рҟ	-815
▁иреи	-816
▁Ак	-817
згьы	-818
▁Ал	-819
▁дала	-820
▁дахь	-821
әынҭқарра	-822
шәеит	-823
▁дын	-824
▁ира	-825
ханы	-826
ҭи	-827
оет	-828
▁дц	-829
▁игәа	-830
▁ишьа	-831
▁ақә	-832
»,	-833
▁Абри	-834
раала	-835
напы	-836
▁ҳаз	-837
шо	-838
ҟар	-839
шьҭы	-840
ыза	-841
▁Убри	-842
▁Ап	-843
▁ҵ	-844
хьаа	-845
▁иаан	-846
зыҟа	-847
ыш	-848
▁аин	-849
▁идыр	-850
рес	-851
ис	-852
▁џьара	-853
▁жәлар	-854
зын	-855
▁их	-856
зу	-857
▁Џь	-858
џьар	-859
кра	-860
▁адунеи	-861
▁зынӡа	-862
лаҭ	-863
цәажәара	-864
▁адгьыл	-865
еинраала	-866
▁3	-867
▁Еи	-868
▁ашәҟәы	-869
▁аибашьра	-870
зыԥш	-871
гәеи	-872
чч	-873
лап	-874
ныҳәа	-875
▁аԥсуаа	-876
ҵҟа	-877
гье	-878
мҩа	-879
▁Из	-880
▁иажәа	-881
шәо	-882
▁сым	-883
ху	-884
▁иҽ	-885
кала	-886
▁араион	-887
▁хә	-888
▁Ара	-889
ҩс	-890
лоз	-891
гылоу	-892
▁ка	-893
әара	-894
▁жәа	-895
итера	-896
уль	-897
ыц	-898
ҳәон	-899
▁ахада	-900
шьына	-901
иас	-902
хоз	-903
министр	-904
ынтәи	-905
▁е	-906
▁Гә	-907
▁арахь	-908
ран	-909
▁еил	-910
ҭахуп	-911
▁аҽа	-912
Аԥс	-913
иаша	-914
▁ацәа	-915
қы	-916
рым	-917
тәу	-918
иу	-919
быр	-920
тәаз	-921
ҭахыз	-922
цәыр	-923
▁ҿ	-924
лаԥш	-925
▁исы	-926
гәырӷь	-927
бли	-928
шәыр	-929
▁иҭ	-930
▁Ла	-931
рыла	-932
лақәа	-933
▁Аф	-934
Уа	-935
▁егьырҭ	-936
қәым	-937
▁Ка	-938
ҭак	-939
▁иҩ	-940
кәан	-941
▁иҵ	-942
▁ианы	-943
▁уҳәа	-944
▁абра	-945
▁еиқә	-946
▁Ад	-947
роуп	-948
уеи	-949
▁Га	-950
из	-951
ҭыҵ	-952
шоит	-953
ог	-954
шәаны	-955
▁аԥсы	-956
ԥшит	-957
ина	-958
даз	-959
ҿиара	-960
ҭара	-961
хынҳә	-962
даҩ	-963
▁апро	-964
ӡә	-965
▁аана	-966
цәгь	-967
мҭақәа	-968
▁дааи	-969
бжьа	-970
▁аиҳабы	-971
▁..	-972
▁еиҭа	-973
фа	-974
ыҭ	-975
шаҳа	-976
▁еиц	-977
ныр	-978
еҭ	-979
▁дш	-980
▁ргәы	-981
▁Ҳара	-982
ел	-983
▁иаана	-984
дыруаз	-985
кьы	-986
ки	-987
▁Аа	-988
ҩызцәа	-989
».	-990
оп	-991
▁иҳәан	-992
уамызт	-993
хап	-994
шьцәа	-995
ԥыр	-996
▁На	-997
▁амца	-998
Иа	-999
ум	-1000
▁иза	-1001
кьана	-1002
▁ҩы	-1003
▁хәыҷы	-1004
шьара	-1005
итература	-1006
пқәа	-1007
ҵас	-1008
▁макьана	-1009
▁уахь	-1010
▁арҭ	-1011
▁иаб	-1012
▁насгьы	-1013
▁ҩа	-1014
ынч	-1015
каара	-1016
хон	-1017
мза	-1018
әынҭқарратә	-1019
тер	-1020
▁роуп	-1021
ани	-1022
пх	-1023
лтә	-1024
зиара	-1025
▁ишә	-1026
ос	-1027
▁бызшәа	-1028
разы	-1029
хыра	-1030
хәтәан	-1031
шәан	-1032
▁ате	-1033
▁амшын	-1034
кыра	-1035
▁усҟан	-1036
▁аусура	-1037
▁инаркны	-1038
ест	-1039
▁змоу	-1040
лага	-1041
▁шьҭа	-1042
гылоуп	-1043
батәи	-1044
сит	-1045
ааигәа	-1046
оурых	-1047
▁аӡәгьы	-1048
▁агәра	-1049
▁иац	-1050
цҳауеит	-1051
ард	-1052
▁аҟа	-1053
▁ақыҭа	-1054
▁аст	-1055
▁иҿы	-1056
ҳаз	-1057
она	-1058
ықәс	-1059
иатә	-1060
00	-1061
барҭ	-1062
раз	-1063
зура	-1064
ырц	-1065
▁наҟ	-1066
арҭа	-1067
шыҩ	-1068
ну	-1069
▁аамҭазы	-1070
оман	-1071
баз	-1072
▁днеи	-1073
ариа	-1074
▁Иахьа	-1075
қәагьы	-1076
Аха	-1077
▁шь	-1078
сиа	-1079
▁лҳәеит	-1080
ҵыс	-1081
жьҭеи	-1082
публи	-1083
▁Шьа	-1084
ааира	-1085
ԥхьаӡа	-1086
хуа	-1087
ары	-1088
▁сна	-1089
▁уз	-1090
шәоит	-1091
▁мацара	-1092
ид	-1093
▁дны	-1094
әма	-1095
▁неи	-1096
▁реиԥш	-1097
ое	-1098
▁Шь	-1099
мкәа	-1100
▁егь	-1101
▁ум	-1102
аниа	-1103
▁ахәы	-1104
▁Ҷ	-1105
кәу	-1106
хала	-1107
▁аминистр	-1108
рала	-1109
олог	-1110
рыз	-1111
ҵзура	-1112
ԥша	-1113
▁ихьӡ	-1114
ект	-1115
банзар	-1116
ҽеи	-1117
икатә	-1118
орма	-1119
▁хада	-1120
ҵоз	-1121
▁ԥс	-1122
хьчара	-1123
дкыла	-1124
ԥыл	-1125
хьала	-1126
▁ае	-1127
▁аанацҳауеит	-1128
▁аԥсҭазаара	-1129
шәаз	-1130
ҩыза	-1131
ароуп	-1132
▁Аԥсуа	-1133
▁дзы	-1134
кәым	-1135
▁инапы	-1136
сым	-1137
▁бы	-1138
▁иалагеит	-1139
▁шықәсазы	-1140
▁Ф	-1141
▁ашкол	-1142
гәыӷ	-1143
ҷа	-1144
жәытә	-1145
гӡа	-1146
цәоуп	-1147
▁Ҟ	-1148
▁шәара	-1149
тәқәа	-1150
▁схы	-1151
▁саргьы	-1152
публика	-1153
рыц	-1154
барҭа	-1155
▁аҭак	-1156
▁Аҩ	-1157
▁*	-1158
ҳаит	-1159
▁иахьы	-1160
кын	-1161
дыруеит	-1162
▁мҩаԥ	-1163
зин	-1164
бз	-1165
сны	-1166
▁иҟан	-1167
кыд	-1168
ҳаны	-1169
ҵааит	-1170
▁Уара	-1171
ресс	-1172
▁уаҩ	-1173
▁иуа	-1174
жьны	-1175
▁си	-1176
ԥыла	-1177
▁Ц	-1178
Сара	-1179
▁саб	-1180
▁ҭыԥ	-1181
ег	-1182
▁иақә	-1183
орт	-1184
▁ач	-1185
ҭоуп	-1186
▁Ле	-1187
▁сеи	-1188
ларц	-1189
хыраара	-1190
мш	-1191
гақәа	-1192
▁аҿа	-1193
▁ҟалоит	-1194
сахьа	-1195
▁даны	-1196
▁саа	-1197
оума	-1198
ӡбахә	-1199
▁нар	-1200
анд	-1201
ова	-1202
ҵон	-1203
▁ҳан	-1204
иаш	-1205
▁иԥсы	-1206
▁Ама	-1207
▁иад	-1208
ун	-1209
еиԥшым	-1210
ҵана	-1211
ҳәаа	-1212
▁аза	-1213
зхәыц	-1214
гәеиҭеит	-1215
шәала	-1216
кылеит	-1217
мыз	-1218
оукы	-1219
кыс	-1220
ԥсадгьыл	-1221
▁ажәҩан	-1222
ок	-1223
▁ирыла	-1224
▁аҭоурых	-1225
▁ибжьы	-1226
▁рыз	-1227
▁анцәа	-1228
арт	-1229
мзар	-1230
от	-1231
знак	-1232
нагь	-1233
▁мап	-1234
уазар	-1235
шҭа	-1236
▁еиҿ	-1237
▁хәы	-1238
▁рҟны	-1239
тәаны	-1240
▁иареи	-1241
▁аҭагылазаашьа	-1242
ԥшы	-1243
ԥхьаӡ	-1244
од	-1245
▁Ча	-1246
▁иах	-1247
▁ирыз	-1248
заалак	-1249
ӡырҩ	-1250
моуп	-1251
бац	-1252
▁лгәы	-1253
▁,	-1254
▁мҩа	-1255
▁ҟаи	-1256
еспублика	-1257
ҵәык	-1258
ӡаз	-1259
ԥхьаӡара	-1260
▁сареи	-1261
ԥара	-1262
▁ахәыҷқәа	-1263
▁ид	-1264
▁акәа	-1265
▁ашьха	-1266
ҭит	-1267
▁шаҟа	-1268
ҭо	-1269
хуеит	-1270
▁аусқәа	-1271
гыло	-1272
геи	-1273
ҭгьы	-1274
оль	-1275
ԥхьаҟа	-1276
ҽны	-1277
ҭала	-1278
▁ҷы	-1279
▁хәа	-1280
хьар	-1281
лоуп	-1282
▁дықә	-1283
ап	-1284
олит	-1285
▁хара	-1286
▁ақырҭ	-1287
▁4	-1288
▁гә	-1289
▁апоет	-1290
▁иԥш	-1291
цца	-1292
ҭаны	-1293
сыԥ	-1294
тәеит	-1295
џьара	-1296
▁уаа	-1297
ӷаб	-1298
ӷба	-1299
ҳәыз	-1300
▁уаҩы	-1301
заап	-1302
боз	-1303
▁дшы	-1304
▁ԥсы	-1305
▁иоуп	-1306
ӡомызт	-1307
шаҳаҭ	-1308
▁сзы	-1309
▁абжьы	-1310
▁иаҿ	-1311
▁ӡ	-1312
ҭыс	-1313
шеит	-1314
каз	-1315
мзаргьы	-1316
ҳан	-1317
▁цқьа	-1318
лт	-1319
куп	-1320
▁рна	-1321
▁Сы	-1322
▁изым	-1323
сп	-1324
Ус	-1325
ури	-1326
▁ӷәӷәа	-1327
хәара	-1328
▁акәхап	-1329
ҭоит	-1330
▁ижә	-1331
▁цәгьа	-1332
▁имҩаԥыс	-1333
ру	-1334
▁ажәабжь	-1335
▁т	-1336
▁аҳә	-1337
▁дана	-1338
!..	-1339
▁рҟынӡа	-1340
▁рус	-1341
▁5	-1342
мч	-1343
▁ҟаз	-1344
▁дахьы	-1345
▁202	-1346
ырқә	-1347
ҳәап	-1348
ӷәӷә	-1349
ҵит	-1350
оура	-1351
▁акәзар	-1352
џьын	-1353
▁зхы	-1354
хаа	-1355
▁амч	-1356
гылт	-1357
▁аҽны	-1358
▁аҟнытә	-1359
раҿы	-1360
ҟала	-1361
ҭә	-1362
▁руа	-1363
▁ауаҩ	-1364
ҳәаны	-1365
▁сыр	-1366
▁ыҟоуп	-1367
цәажәеит	-1368
▁нан	-1369
гьежь	-1370
ҿиа	-1371
цаз	-1372
▁иса	-1373
ҳарак	-1374
▁дҩа	-1375
▁бара	-1376
▁рыбжьара	-1377
овет	-1378
риа	-1379
▁Жә	-1380
▁иҿа	-1381
ҭынч	-1382
суа	-1383
оск	-1384
нал	-1385
▁баа	-1386
▁Ана	-1387
роу	-1388
▁аҟара	-1389
ҳауа	-1390
катә	-1391
мп	-1392
му	-1393
▁рыма	-1394
▁иши	-1395
▁Кәа	-1396
гоу	-1397
▁дша	-1398
▁абыр	-1399
тив	-1400
▁лхы	-1401
▁аҩы	-1402
қәиҭ	-1403
ҩаԥга	-1404
куеит	-1405
▁Ҵ	-1406
хәмар	-1407
▁амра	-1408
дунеи	-1409
▁Шәа	-1410
ҷкәынцәа	-1411
▁иҵа	-1412
лади	-1413
ӡаа	-1414
дгыла	-1415
цыз	-1416
гылоит	-1417
артә	-1418
▁цәа	-1419
ҳәшьа	-1420
▁аԥша	-1421
кыр	-1422
▁аҵыхәтәан	-1423
▁ҽ	-1424
лацәа	-1425
▁избанзар	-1426
▁аҩыза	-1427
цәажәо	-1428
▁иҳәа	-1429
▁аила	-1430
ԥыс	-1431
гәра	-1432
▁иаразнак	-1433
шҭ	-1434
пат	-1435
▁ыҟа	-1436
▁ԥхын	-1437
▁дыҟан	-1438
▁Ашә	-1439
цо	-1440
ҟьеит	-1441
ӡәы	-1442
ҵаарақәа	-1443
▁азҵаара	-1444
цеит	-1445
▁еснагь	-1446
▁ика	-1447
дәықә	-1448
зны	-1449
▁ши	-1450
▁илы	-1451
),	-1452
ԥҳәыс	-1453
▁аж	-1454
▁ҳар	-1455
▁аиҿ	-1456
▁адырра	-1457
хьч	-1458
еа	-1459
уеиԥшым	-1460
▁Влади	-1461
қыҭа	-1462
19	-1463
▁бзи	-1464
ҭахым	-1465
дәылҵ	-1466
тат	-1467
шьеи	-1468
ӡак	-1469
ьын	-1470
▁аҽы	-1471
?!	-1472
▁иԥа	-1473
▁ахьӡ	-1474
▁лха	-1475
▁ахьа	-1476
ҩеи	-1477
бон	-1478
▁лар	-1479
▁Убас	-1480
ҵра	-1481
иц	-1482
ымҭа	-1483
▁сын	-1484
зшәа	-1485
ӡамызт	-1486
▁Иш	-1487
арбан	-1488
▁ацә	-1489
▁абарҭ	-1490
ԥшуеит	-1491
хеи	-1492
Аԥсны	-1493
.)	-1494
▁азин	-1495
зааит	-1496
хт	-1497
бзиа	-1498
▁ахар	-1499
бж	-1500
зеиԥш	-1501
шьо	-1502
▁ик	-1503
бзиара	-1504
▁зла	-1505
▁аурыс	-1506
шьеит	-1507
ҭас	-1508
▁акәымзар	-1509
ымкәа	-1510
▁асп	-1511
ықәсқәа	-1512
▁Гагра	-1513
▁ашҭа	-1514
▁усгьы	-1515
шьҭаз	-1516
храа	-1517
▁ишьҭ	-1518
▁иеиԥш	-1519
баҩ	-1520
ҭаа	-1521
ост	-1522
▁цәы	-1523
уаҩы	-1524
▁Абас	-1525
гӡаны	-1526
ҭарнак	-1527
▁Уажәы	-1528
бала	-1529
▁еиз	-1530
▁Ис	-1531
▁дыҟа	-1532
оф	-1533
рас	-1534
был	-1535
арын	-1536
▁изла	-1537
еила	-1538
оли	-1539
▁иҟаи	-1540
▁иаргьы	-1541
ӡала	-1542
рахь	-1543
▁аныр	-1544
гӡ	-1545
▁аре	-1546
цоз	-1547
▁араҟа	-1548
▁Ала	-1549
▁Кәы	-1550
онд	-1551
▁мч	-1552
▁агана	-1553
▁иажәақәа	-1554
ҟьан	-1555
ԥын	-1556
ӡын	-1557
уз	-1558
▁дым	-1559
анагара	-1560
▁дыл	-1561
џьыр	-1562
▁дҭа	-1563
ре	-1564
ультура	-1565
▁уб	-1566
шьан	-1567
▁уаҟа	-1568
ҵеи	-1569
▁дад	-1570
▁Аҳәынҭқарра	-1571
ад	-1572
шын	-1573
▁ибзи	-1574
▁ип	-1575
шәар	-1576
иту	-1577
▁анеи	-1578
▁ҷыда	-1579
▁аԥҳәыс	-1580
▁еиқәа	-1581
узеи	-1582
џьынџь	-1583
▁Аслан	-1584
пхгара	-1585
циатә	-1586
▁те	-1587
▁рых	-1588
гала	-1589
▁г	-1590
▁аҳәынҭқарратә	-1591
ԥсыра	-1592
шоз	-1593
ҵуа	-1594
ҟы	-1595
блақәа	-1596
▁Жәлар	-1597
▁Моск	-1598
▁егьи	-1599
▁иҟам	-1600
антәи	-1601
ҟатәи	-1602
▁иус	-1603
▁абар	-1604
▁ааигәа	-1605
ои	-1606
оном	-1607
▁аџьа	-1608
нуҵҟа	-1609
▁мааҭ	-1610
раамҭа	-1611
▁еиуеиԥшым	-1612
ӷра	-1613
цәым	-1614
▁иҟалаз	-1615
▁Иу	-1616
▁имҩаԥ	-1617
тәра	-1618
▁ҟар	-1619
стцәа	-1620
▁адәы	-1621
▁рминистр	-1622
ԥшра	-1623
ери	-1624
▁шьы	-1625
▁аҩныҟа	-1626
гәырӷьа	-1627
▁Ахада	-1628
хаҵ	-1629
▁аҭы	-1630
▁6	-1631
▁рҿа	-1632
▁иакә	-1633
▁дцеит	-1634
▁хьа	-1635
▁Ажәа	-1636
ԥшаа	-1637
▁рыц	-1638
жәеинраала	-1639
шаны	-1640
▁Ва	-1641
ви	-1642
шан	-1643
▁днар	-1644
оезиа	-1645
ститу	-1646
▁ашәҟәыҩ	-1647
гарц	-1648
ҳәозар	-1649
▁маҷк	-1650
ҳәызба	-1651
▁рҳәеит	-1652
сир	-1653
ҟана	-1654
▁аек	-1655
мыс	-1656
▁ихә	-1657
бырг	-1658
хәын	-1659
▁амашьына	-1660
ныҟә	-1661
▁аҳәаа	-1662
▁За	-1663
▁аҟынӡа	-1664
гәаҟ	-1665
Ари	-1666
қәыз	-1667
▁ажәақәа	-1668
▁аԥы	-1669
мақәа	-1670
▁ажәеинраала	-1671
џьал	-1672
гоуп	-1673
ҳәарц	-1674
▁Усҟан	-1675
▁абна	-1676
▁хыр	-1677
▁абзиа	-1678
▁мамзаргьы	-1679
▁змам	-1680
▁ишәа	-1681
▁иԥс	-1682
▁уажәшьҭа	-1683
әны	-1684
абара	-1685
раанӡа	-1686
▁Гәдоу	-1687
▁рыр	-1688
▁игә	-1689
кәша	-1690
▁зыр	-1691
▁су	-1692
хыӡ	-1693
лымҳа	-1694
маа	-1695
бацәа	-1696
қалақь	-1697
▁ҽа	-1698
иаз	-1699
▁Иҟа	-1700
ԥшны	-1701
нтәи	-1702
▁Аус	-1703
▁раан	-1704
▁раԥхьаӡа	-1705
▁ҭынч	-1706
цызт	-1707
▁раа	-1708
▁ашәы	-1709
ырқәтәыла	-1710
уара	-1711
▁7	-1712
▁ҩыџьа	-1713
▁ахәа	-1714
меи	-1715
▁реиҳа	-1716
ҭоурых	-1717
▁Аԥ	-1718
ҵоу	-1719
▁асас	-1720
ымҭақәа	-1721
ӡоу	-1722
кәыр	-1723
▁Аԥснытәи	-1724
▁шьҭ	-1725
▁ихаҭыԥ	-1726
▁баша	-1727
▁ахыр	-1728
атр	-1729
▁дуқәа	-1730
кааит	-1731
қа	-1732
▁ихаҭа	-1733
▁иазгәа	-1734
▁ахан	-1735
вер	-1736
▁лас	-1737
мир	-1738
▁ҳзы	-1739
ҿыз	-1740
▁сахь	-1741
▁еибашьра	-1742
ҭаацәа	-1743
▁Ми	-1744
▁Қырҭ	-1745
чам	-1746
ҿу	-1747
▁сха	-1748
хьшәа	-1749
▁Арҭ	-1750
▁иҽа	-1751
▁еид	-1752
▁аҩа	-1753
неиуаз	-1754
дио	-1755
ӷыр	-1756
▁иаԥ	-1757
▁иман	-1758
ныҟәа	-1759
уазеи	-1760
деи	-1761
зароуп	-1762
▁ԥыҭ	-1763
егова	-1764
мак	-1765
ектор	-1766
кәакәа	-1767
тәылеи	-1768
сра	-1769
хақәа	-1770
▁анха	-1771
цәажәоз	-1772
маҵзура	-1773
ҵәара	-1774
Нас	-1775
ҵаҩ	-1776
тин	-1777
▁иаха	-1778
▁аби	-1779
лион	-1780
▁аԥса	-1781
ԥшыз	-1782
▁сгәа	-1783
▁иԥҳәыс	-1784
▁Ха	-1785
▁далагеит	-1786
жьыр	-1787
ласны	-1788
бжьаратәи	-1789
▁рыл	-1790
хьча	-1791
хьыӡ	-1792
шәтәы	-1793
▁лым	-1794
ҽыр	-1795
▁сыш	-1796
ӡамкәа	-1797
анк	-1798
▁Ҩ	-1799
▁ҟала	-1800
шьҭоу	-1801
▁игылаз	-1802
▁дақә	-1803
▁уеи	-1804
мада	-1805
дыруам	-1806
▁шәҟәы	-1807
ҵны	-1808
лагеит	-1809
▁иҩны	-1810
ымца	-1811
▁анаҩс	-1812
▁Мар	-1813
грам	-1814
маҷ	-1815
ко	-1816
гӡара	-1817
▁ацхыраара	-1818
▁Хьы	-1819
▁даан	-1820
жәҩа	-1821
▁ҟам	-1822
▁дук	-1823
форма	-1824
▁угәы	-1825
дырра	-1826
▁Москва	-1827
ҵақәа	-1828
вказ	-1829
▁8	-1830
▁иҟар	-1831
▁ԥҳәыс	-1832
ниа	-1833
▁аҟынтә	-1834
▁аде	-1835
ерациа	-1836
ҳәақәа	-1837
ҵыр	-1838
ҭеиҳәеит	-1839
▁ҩба	-1840
хьынӡа	-1841
▁Ша	-1842
▁иахы	-1843
▁ыҟам	-1844
Урҭ	-1845
ҵәҟь	-1846
▁Уажә	-1847
ҵоуп	-1848
шьҭахьҟа	-1849
▁ҿа	-1850
ҟәқәа	-1851
лга	-1852
▁ишԥа	-1853
▁Иегова	-1854
▁Гәдоуҭа	-1855
лом	-1856
▁ишыр	-1857
▁9	-1858
мба	-1859
▁убра	-1860
▁абаа	-1861
ангьы	-1862
▁уаанӡа	-1863
ԥада	-1864
тур	-1865
ҭны	-1866
▁иазгәеиҭеит	-1867
▁Ҭырқәтәыла	-1868
сыз	-1869
▁ақәы	-1870
ҩса	-1871
▁илым	-1872
▁ргәа	-1873
▁еиба	-1874
лԥа	-1875
мит	-1876
▁амилаҭ	-1877
ааз	-1878
▁ч	-1879
▁Бад	-1880
▁аком	-1881
▁15	-1882
зан	-1883
лу	-1884
тәым	-1885
▁акәымкәа	-1886
ҟак	-1887
хьым	-1888
▁акор	-1889
дыруан	-1890
жьит	-1891
мҩаԥга	-1892
лагьы	-1893
▁заҵәык	-1894
▁хәыҷ	-1895
буп	-1896
▁аиҭа	-1897
▁ицеит	-1898
▁ақыҭан	-1899
еиба	-1900
шьҭан	-1901
▁актәи	-1902
натә	-1903
▁аԥсабара	-1904
▁Урыстәылатәи	-1905
▁аҳәара	-1906
ант	-1907
ита	-1908
шоуп	-1909
уд	-1910
оциа	-1911
▁иани	-1912
шәон	-1913
ҵуеит	-1914
шьапы	-1915
хас	-1916
шьоит	-1917
▁аԥара	-1918
хуан	-1919
▁рыцҳа	-1920
неит	-1921
ԥар	-1922
тәаҩы	-1923
▁змаз	-1924
еиц	-1925
гәам	-1926
дак	-1927
▁Ах	-1928
▁Шә	-1929
▁раԥхьатәи	-1930
▁акон	-1931
▁иҿ	-1932
арлам	-1933
Аи	-1934
ҵак	-1935
▁Дара	-1936
▁аахыс	-1937
▁ракә	-1938
шьит	-1939
▁аҭаацәа	-1940
▁имҩа	-1941
▁ахаҳә	-1942
екс	-1943
аамҭа	-1944
хәо	-1945
▁Бжь	-1946
тәыз	-1947
▁ашықәс	-1948
маны	-1949
▁Владимир	-1950
▁еиӷь	-1951
соу	-1952
▁ракәын	-1953
▁Аш	-1954
▁исым	-1955
▁ҟалап	-1956
▁ихаҭыԥуаҩ	-1957
▁ҳә	-1958
харҭа	-1959
цқәа	-1960
зыӡырҩ	-1961
ков	-1962
▁мҩаԥыс	-1963
қәын	-1964
▁ауааԥсыра	-1965
▁аарт	-1966
▁аҳәынҭқарра	-1967
хьи	-1968
▁ҭы	-1969
шәтәырҭа	-1970
▁аԥа	-1971
жьыз	-1972
лшо	-1973
мад	-1974
▁аҟынтәи	-1975
▁Лара	-1976
▁ашьы	-1977
▁Реи	-1978
▁уан	-1979
ԥшуан	-1980
хықә	-1981
▁иԥсҭазаара	-1982
рит	-1983
зымдыруа	-1984
ҭаара	-1985
▁ажәытә	-1986
▁иаҵана	-1987
уит	-1988
газеҭ	-1989
▁хыхь	-1990
исус	-1991
ҭал	-1992
наҳа	-1993
▁Қырҭтәыла	-1994
ҟаи	-1995
▁сықә	-1996
▁аҩбатәи	-1997
пыла	-1998
▁уаха	-1999
цоит	-2000
▁џьа	-2001
▁12	-2002
▁Зны	-2003
шәоз	-2004
хәқәа	-2005
▁иарбан	-2006
▁асахьа	-2007
▁ахаҵа	-2008
▁Иаа	-2009
ҭысқәа	-2010
тәыҩса	-2011
▁сыла	-2012
▁ицәыр	-2013
маҭ	-2014
▁10	-2015
қьым	-2016
▁дҳа	-2017
гәаԥ	-2018
ырхага	-2019
иал	-2020
зааи	-2021
▁аиԥш	-2022
лароуп	-2023
ьыр	-2024
▁Иисус	-2025
жәкыра	-2026
▁апресс	-2027
нага	-2028
шьны	-2029
зуҩцәа	-2030
зга	-2031
ҩра	-2032
▁про	-2033
▁ача	-2034
▁зеиԥш	-2035
ббра	-2036
▁ишьақә	-2037
ырҳәа	-2038
шьҭра	-2039
▁дыс	-2040
▁абжь	-2041
▁сҭа	-2042
▁иакәын	-2043
▁ҳгәы	-2044
▁наи	-2045
▁ҟаиҵеит	-2046
▁литература	-2047
граф	-2048
цәыӡ	-2049
циақәа	-2050
арламент	-2051
кыло	-2052
ониа	-2053
▁заҟа	-2054
скь	-2055
▁Амра	-2056
▁рықә	-2057
кааны	-2058
хуаз	-2059
▁дуӡ	-2060
▁аԥшәма	-2061
▁иҽы	-2062
гаҩ	-2063
цыԥхьаӡа	-2064
▁аҿар	-2065
гәырҩа	-2066
▁Аԥсныҟа	-2067
скьа	-2068
чымаз	-2069
▁Гәы	-2070
уҭ	-2071
ты	-2072
раҟ	-2073
харц	-2074
шьц	-2075
аратә	-2076
хәыцра	-2077
цыр	-2078
лыз	-2079
▁аиаша	-2080
▁аӷа	-2081
куаз	-2082
мха	-2083
▁ми	-2084
▁Зы	-2085
▁аҵыхәа	-2086
▁азгәа	-2087
кәажә	-2088
зааигәа	-2089
▁изеи	-2090
▁Ааи	-2091
▁иҭах	-2092
▁ыҟан	-2093
▁Ҳаи	-2094
▁ахәыҷы	-2095
шәны	-2096
▁ақәа	-2097
▁Аҟәатәи	-2098
▁уажәраанӡа	-2099
лкаа	-2100
▁сҭахуп	-2101
▁мыш	-2102
▁ицәа	-2103
Ҳа	-2104
▁201	-2105
шьҭыхны	-2106
бап	-2107
▁хым	-2108
ртә	-2109
Из	-2110
▁Сер	-2111
▁иамоу	-2112
▁мы	-2113
Иара	-2114
ҩит	-2115
▁знык	-2116
▁ақьа	-2117
лакгьы	-2118
ԥшьа	-2119
▁азҵаарақәа	-2120
ститут	-2121
шеи	-2122
▁иахьагьы	-2123
▁Бжьаниа	-2124
▁Џьа	-2125
ван	-2126
▁иоу	-2127
▁иӡ	-2128
Ам	-2129
ҳам	-2130
▁рхыԥхьаӡара	-2131
ори	-2132
▁иахҟьаны	-2133
ирус	-2134
цәоу	-2135
▁кәа	-2136
▁абызшәа	-2137
Уара	-2138
▁абџьар	-2139
милаҭ	-2140
▁азакәан	-2141
▁дыҟоуп	-2142
▁иашьа	-2143
▁сры	-2144
ынгьы	-2145
▁аҵыхәтәантәи	-2146
▁ухы	-2147
▁игәала	-2148
паҿы	-2149
▁Иаҳ	-2150
кыратә	-2151
▁аҷкәын	-2152
зыз	-2153
маӡам	-2154
ерт	-2155
▁Ӡ	-2156
ҵыз	-2157
кәха	-2158
храқәа	-2159
▁иҩызцәа	-2160
иаа	-2161
▁ца	-2162
кқәа	-2163
▁аԥсшәа	-2164
қәоу	-2165
нагӡа	-2166
▁асааҭ	-2167
сас	-2168
уар	-2169
▁ԥсыхәа	-2170
башьцәа	-2171
чыра	-2172
▁агәашә	-2173
▁Аг	-2174
хьынҵа	-2175
хак	-2176
лаа	-2177
▁ахантәаҩы	-2178
ӡан	-2179
▁ишәы	-2180
▁ианаа	-2181
!»	-2182
▁Ашь	-2183
▁рыԥсы	-2184
▁азыҳәан	-2185
ул	-2186
мат	-2187
урҭа	-2188
▁анышә	-2189
▁зху	-2190
▁лассы	-2191
сабала	-2192
▁арратә	-2193
ҭам	-2194
▁амаҵ	-2195
Ҳара	-2196
▁мил	-2197
▁уадаҩ	-2198
▁ирацәа	-2199
қәыршәаны	-2200
▁Лы	-2201
цхраа	-2202
▁Ир	-2203
▁иааз	-2204
мала	-2205
▁гәыԥ	-2206
▁иахьатәи	-2207
▁бжьы	-2208
▁рҟынтәи	-2209
▁18	-2210
ҟьаз	-2211
▁жь	-2212
▁акол	-2213
▁аџь	-2214
ума	-2215
▁иаша	-2216
заарын	-2217
путат	-2218
▁ибзианы	-2219
▁илеи	-2220
▁Аибашьра	-2221
дақәа	-2222
▁ԥхьаҟа	-2223
зқь	-2224
▁инықә	-2225
ласс	-2226
▁кны	-2227
нтә	-2228
зыҟазаашьа	-2229
зынла	-2230
▁иаҿын	-2231
▁ирҭа	-2232
иԥҳа	-2233
▁ашықәсқәа	-2234
▁о	-2235
ҭана	-2236
ҵәеит	-2237
▁Аԥсни	-2238
уоу	-2239
▁аҳәса	-2240
арак	-2241
ец	-2242
ук	-2243
▁ареспублика	-2244
▁ԥшь	-2245
▁рҽа	-2246
Ан	-2247
ҟәар	-2248
▁иҳәоит	-2249
хамҩа	-2250
ҵәаны	-2251
▁ашҟа	-2252
▁аминистрра	-2253
▁убасгьы	-2254
цу	-2255
▁аӡба	-2256
▁еицыр	-2257
ҳәаҩ	-2258
▁ҳаҭыр	-2259
▁алитература	-2260
▁дааит	-2261
▁Афед	-2262
▁рахьтә	-2263
▁мчы	-2264
хьаркыратә	-2265
▁цәгь	-2266
бжьқәа	-2267
чамчыра	-2268
лашара	-2269
▁асы	-2270
▁ықә	-2271
▁снеи	-2272
Са	-2273
дҳәа	-2274
лҵыз	-2275
▁Аҵы	-2276
жәла	-2277
дкыланы	-2278
бзи	-2279
▁ҳна	-2280
▁ажур	-2281
шьар	-2282
▁илаԥш	-2283
ҟьо	-2284
шьақәыр	-2285
▁ақырҭуа	-2286
хәҭоу	-2287
▁Ауаа	-2288
▁арԥыс	-2289
ҵарц	-2290
▁Шәара	-2291
так	-2292
тәоу	-2293
▁злоу	-2294
ҽан	-2295
▁аиа	-2296
▁аҵла	-2297
▁ага	-2298
▁шыр	-2299
бызшәа	-2300
тәара	-2301
▁цәыр	-2302
▁хазы	-2303
▁данаа	-2304
▁арҵа	-2305
қәшәа	-2306
▁егьа	-2307
▁длы	-2308
▁иҭы	-2309
▁хар	-2310
рон	-2311
▁инап	-2312
▁11	-2313
ӷәы	-2314
лықь	-2315
ски	-2316
▁қә	-2317
▁аамҭаз	-2318
қәаз	-2319
ҳмада	-2320
▁аиааира	-2321
ҩуа	-2322
▁аҟә	-2323
ҿар	-2324
ҟазшьа	-2325
ши	-2326
▁Кьа	-2327
атә	-2328
▁Ав	-2329
▁Бе	-2330
ҿсахьа	-2331
ԥсуа	-2332
▁адәа	-2333
▁хәыҷык	-2334
▁Зегьы	-2335
цар	-2336
ициа	-2337
▁рацәак	-2338
тон	-2339
▁дза	-2340
▁аполит	-2341
ник	-2342
▁заа	-2343
ҳауеит	-2344
ҵла	-2345
ԥхьара	-2346
▁лыла	-2347
лкаара	-2348
џьынџьтәыла	-2349
▁Аӡ	-2350
ӡоз	-2351
ҟәым	-2352
цәажәон	-2353
ҳала	-2354
▁алшоит	-2355
▁автор	-2356
▁еиқәаҵәа	-2357
▁Ау	-2358
жьра	-2359
0-	-2360
Да	-2361
▁ҟазшьа	-2362
▁ибла	-2363
▁инхо	-2364
▁рышьҭахь	-2365
▁иам	-2366
▁акультура	-2367
куан	-2368
▁исыз	-2369
хәыз	-2370
▁зых	-2371
▁мша	-2372
▁сыҟоуп	-2373
мҭ	-2374
▁дла	-2375
▁аныҳәа	-2376
▁14	-2377
▁бааԥс	-2378
▁аша	-2379
▁Амала	-2380
▁ауеит	-2381
▁иаԥхьа	-2382
ҩаԥгара	-2383
мал	-2384
рагьы	-2385
▁аӡәыр	-2386
▁имаҷ	-2387
ҿгьы	-2388
чча	-2389
▁иҿын	-2390
цәагьы	-2391
ели	-2392
лав	-2393
даҭ	-2394
▁дрыла	-2395
▁ҷ	-2396
▁даз	-2397
оузеи	-2398
бран	-2399
▁згәы	-2400
▁Сергеи	-2401
▁сҳәеит	-2402
▁урыстәыла	-2403
ԥшын	-2404
▁ԥа	-2405
баҟоу	-2406
каауа	-2407
▁дҟа	-2408
▁џьы	-2409
▁сыԥсы	-2410
▁хәажәкыра	-2411
▁ауаажәлар	-2412
шон	-2413
▁Асовет	-2414
пхга	-2415
грамма	-2416
▁Лак	-2417
▁ҿааи	-2418
:1	-2419
▁арадио	-2420
ӷырӡ	-2421
▁нахыс	-2422
тәоуп	-2423
хратә	-2424
▁авто	-2425
▁шкәакәа	-2426
жәи	-2427
лаҳ	-2428
гәара	-2429
▁доу	-2430
ижьҭеи	-2431
▁еиҳагьы	-2432
▁шеи	-2433
ԥылара	-2434
▁иҿынеи	-2435
шьҭоуп	-2436
жьырныҳәа	-2437
уоуп	-2438
▁аиҳабыра	-2439
тәын	-2440
▁Аҳа	-2441
▁лаб	-2442
▁Нов	-2443
цәаз	-2444
Убри	-2445
ԥх	-2446
▁нанҳәа	-2447
шьҭит	-2448
шәҟәы	-2449
▁Арӡын	-2450
цны	-2451
ықәсы	-2452
▁Абар	-2453
▁Ац	-2454
онав	-2455
▁пат	-2456
▁шьақә	-2457
ызеи	-2458
иректор	-2459
▁га	-2460
нам	-2461
шәқәа	-2462
▁иагь	-2463
▁ԥы	-2464
ԥхьар	-2465
▁иаҿуп	-2466
▁иазкны	-2467
▁лаҵара	-2468
▁ажәы	-2469
ԥшәма	-2470
▁ҟана	-2471
лҵит	-2472
▁зха	-2473
гәҭа	-2474
аныр	-2475
▁ҳхы	-2476
датәи	-2477
▁изыр	-2478
қәшаҳаҭ	-2479
гана	-2480
▁аинтер	-2481
ҩын	-2482
▁в	-2483
лин	-2484
▁ица	-2485
▁Ҭа	-2486
ериа	-2487
▁Аҩӡба	-2488
ҩыс	-2489
▁ҩаԥхьа	-2490
қәҵа	-2491
әныҟатәи	-2492
зал	-2493
▁цәыббра	-2494
хьыр	-2495
шьоуп	-2496
хуп	-2497
▁аӡӷаб	-2498
▁Ры	-2499
Аа	-2500
ӷацәа	-2501
ҿуп	-2502
▁Аҳәынҭқарратә	-2503
гылоз	-2504
шьаны	-2505
Сы	-2506
▁Па	-2507
▁даҿын	-2508
хәыцуа	-2509
".	-2510
шәҭ	-2511
▁Ев	-2512
▁ихь	-2513
онавирус	-2514
▁Кавказ	-2515
▁роу	-2516
қәыԥш	-2517
▁ааир	-2518
▁ҩны	-2519
арахь	-2520
▁Очамчыра	-2521
куль	-2522
▁анакәха	-2523
дтәа	-2524
қырҭ	-2525
▁уна	-2526
▁усура	-2527
шьыҳәа	-2528
▁иба	-2529
▁ԥсҭазаара	-2530
шьап	-2531
▁ирықә	-2532
▁“	-2533
шәым	-2534
ардын	-2535
маҳа	-2536
▁иҩа	-2537
▁есым	-2538
▁кыр	-2539
▁»	-2540
▁школ	-2541
рам	-2542
▁ииҳәаз	-2543
▁абзиабара	-2544
иеи	-2545
ргьы	-2546
▁ахҭысқәа	-2547
▁Аҩны	-2548
зарц	-2549
шьон	-2550
▁Ҭар	-2551
▁Абарҭ	-2552
ҭахы	-2553
▁аԥсра	-2554
▁апроект	-2555
нали	-2556
кылоит	-2557
лакь	-2558
▁дра	-2559
▁даар	-2560
мыжь	-2561
ԥшуаз	-2562
Абри	-2563
▁ао	-2564
▁адагьы	-2565
рба	-2566
▁дар	-2567
▁акры	-2568
▁зыӡбахә	-2569
ҵыхәа	-2570
▁узы	-2571
▁амала	-2572
▁леи	-2573
▁иблақәа	-2574
▁Гәлиа	-2575
▁жьҭаара	-2576
сын	-2577
иақәа	-2578
▁иадҳәа	-2579
▁Мак	-2580
▁быз	-2581
▁ҳахь	-2582
нахыс	-2583
▁ишеи	-2584
шьуа	-2585
елиа	-2586
▁аҵх	-2587
▁афырха	-2588
ауа	-2589
ччо	-2590
▁аҭҵаара	-2591
▁дсы	-2592
▁ыр	-2593
▁аиҳа	-2594
▁хымԥада	-2595
▁Ҽ	-2596
хьшәашәа	-2597
▁ары	-2598
ҩыџьа	-2599
▁маҭәа	-2600
▁ҳала	-2601
▁аоп	-2602
▁ком	-2603
▁еибар	-2604
ӷьу	-2605
▁иазы	-2606
маза	-2607
▁ашьыжь	-2608
хәҭа	-2609
▁иҟала	-2610
ҭҵаара	-2611
зм	-2612
▁инары	-2613
қәиҭра	-2614
▁иазку	-2615
▁рыҩ	-2616
дыруада	-2617
▁ԥхынҷкәын	-2618
ӡаӡа	-2619
▁Зегь	-2620
▁аҳауа	-2621
рист	-2622
мент	-2623
▁астол	-2624
▁13	-2625
▁ашәышықәса	-2626
гом	-2627
▁Иан	-2628
▁ҿааиҭит	-2629
шаҳаҭра	-2630
?..	-2631
цт	-2632
хәаԥшуа	-2633
▁хаҵа	-2634
хәра	-2635
аз	-2636
краина	-2637
ҵшәа	-2638
▁ԥхынгәы	-2639
ель	-2640
▁Саб	-2641
▁хьӡ	-2642
неиуа	-2643
▁дыҟам	-2644
ӡәа	-2645
▁ссир	-2646
▁еилы	-2647
▁иас	-2648
еди	-2649
▁ианыр	-2650
шба	-2651
▁16	-2652
гылон	-2653
ҳча	-2654
▁џьоукы	-2655
▁рҳәоит	-2656
нхара	-2657
ҟалаз	-2658
жьын	-2659
ԥсах	-2660
▁Дыр	-2661
фер	-2662
ологиатә	-2663
▁аҟаҵара	-2664
пан	-2665
рын	-2666
▁сар	-2667
кәыз	-2668
▁рацәоуп	-2669
▁ахҭыс	-2670
▁сыл	-2671
фон	-2672
хааит	-2673
ости	-2674
▁Бес	-2675
жа	-2676
▁дал	-2677
оманда	-2678
ета	-2679
уад	-2680
▁миллион	-2681
▁Сан	-2682
▁арыц	-2683
ӷьыч	-2684
шқәа	-2685
ырҭа	-2686
хәеит	-2687
▁ур	-2688
▁Абра	-2689
▁Аба	-2690
▁Ды	-2691
шәеи	-2692
жәақәа	-2693
таб	-2694
▁ртәы	-2695
▁дуӡӡа	-2696
ида	-2697
ҳәит	-2698
▁Ада	-2699
▁ӡы	-2700
ести	-2701
ограф	-2702
▁17	-2703
▁Хәы	-2704
▁Ашәа	-2705
▁рыҩны	-2706
▁ҟалеит	-2707
ҭахызар	-2708
шҟа	-2709
▁Иҳа	-2710
▁рашәара	-2711
▁Ареспублика	-2712
хоу	-2713
шәын	-2714
▁иаҿа	-2715
▁уаҵәы	-2716
▁амоуп	-2717
▁дахьа	-2718
▁аганахьала	-2719
аауа	-2720
хәаԥшуан	-2721
▁мыр	-2722
хәаны	-2723
қәгәыӷ	-2724
▁иы	-2725
▁ауха	-2726
▁Ауаҩы	-2727
ушь	-2728
ҟьара	-2729
▁иагьа	-2730
оба	-2731
▁даҳ	-2732
цла	-2733
ИА	-2734
▁абҵара	-2735
мен	-2736
▁ҳажәлар	-2737
▁еим	-2738
ааир	-2739
ҩцәеи	-2740
▁ԥшӡа	-2741
▁ацәгь	-2742
ентр	-2743
▁ахәҭа	-2744
ным	-2745
ԥшым	-2746
ҵала	-2747
пи	-2748
▁Ес	-2749
▁дыԥс	-2750
▁аҵә	-2751
ҳәарҭа	-2752
▁иманы	-2753
▁аҳәынҭқар	-2754
тқәа	-2755
ена	-2756
нивер	-2757
▁?	-2758
▁ахаҭа	-2759
▁25	-2760
▁иџь	-2761
▁аҵкыс	-2762
тра	-2763
хом	-2764
▁аҩныҵҟа	-2765
жәҩан	-2766
▁аҿиара	-2767
бле	-2768
зтәи	-2769
ӡӷ	-2770
▁ж	-2771
әыз	-2772
▁Адунеи	-2773
ныла	-2774
андр	-2775
нгьы	-2776
гозар	-2777
▁Саи	-2778
▁иадыр	-2779
кааз	-2780
▁ацәажәара	-2781
▁)	-2782
наа	-2783
▁еили	-2784
ыруа	-2785
кыланы	-2786
▁199	-2787
▁зым	-2788
ччеит	-2789
ырԥш	-2790
▁Уаҳа	-2791
ологиа	-2792
▁адепутат	-2793
▁лҿы	-2794
▁рыҽ	-2795
мпыл	-2796
ааиуаз	-2797
▁дызла	-2798
кьаҿ	-2799
▁уха	-2800
план	-2801
▁Гь	-2802
▁ҵара	-2803
чымазара	-2804
џьынџьтәылатә	-2805
де	-2806
биа	-2807
▁ахара	-2808
аным	-2809
▁N	-2810
ҩуп	-2811
▁иазеи	-2812
ситет	-2813
▁ахәыҷ	-2814
баны	-2815
▁Ахра	-2816
цәажәоит	-2817
маҭәа	-2818
▁шәым	-2819
▁аизара	-2820
▁Арӡынба	-2821
▁Ака	-2822
▁Атәыла	-2823
▁Новости	-2824
▁агазеҭ	-2825
▁аӡиас	-2826
▁кьа	-2827
▁Даҽа	-2828
қәу	-2829
мшәа	-2830
▁ирыц	-2831
ҟаҵара	-2832
▁Ҳаџьы	-2833
▁еиқәыр	-2834
чҳа	-2835
▁аҟәа	-2836
▁Араҟа	-2837
VI	-2838
▁РИА	-2839
шт	-2840
иль	-2841
зыԥ	-2842
▁30	-2843
▁аеконом	-2844
хәыцрақәа	-2845
ема	-2846
▁урыстәылатәи	-2847
▁Аҭа	-2848
▁нап	-2849
▁Чагә	-2850
▁машәыр	-2851
нқәа	-2852
шьам	-2853
▁әа	-2854
▁дгылан	-2855
зааҭ	-2856
шьақә	-2857
▁аԥыр	-2858
▁ахаҭарнак	-2859
лба	-2860
▁иану	-2861
хқәа	-2862
▁амза	-2863
дыз	-2864
ьыԥхь	-2865
▁даараӡа	-2866
рыҟәа	-2867
▁есымша	-2868
▁пату	-2869
аала	-2870
раны	-2871
ӡои	-2872
иаҳа	-2873
маха	-2874
▁захьӡ	-2875
рада	-2876
саб	-2877
емиа	-2878
гәырӷьара	-2879
ԥатәи	-2880
▁ри	-2881
ниверситет	-2882
ҭамыр	-2883
▁аҭынч	-2884
▁Аминистр	-2885
ӡе	-2886
▁ацара	-2887
▁акоуп	-2888
▁Саргьы	-2889
харын	-2890
▁ахархәара	-2891
барц	-2892
Ар	-2893
ҭоз	-2894
▁иҟалеит	-2895
бои	-2896
хәла	-2897
▁Ҷы	-2898
▁иаҵа	-2899
▁ицәы	-2900
ԥхьеит	-2901
енциа	-2902
стан	-2903
гым	-2904
зымдыр	-2905
▁рҭа	-2906
есс	-2907
хоуп	-2908
уаажәлар	-2909
▁ишыҟоу	-2910
▁Апарламент	-2911
▁иҿынеихеит	-2912
ырг	-2913
▁иԥҳа	-2914
▁ирыл	-2915
дан	-2916
▁Алекс	-2917
▁аспорт	-2918
териал	-2919
▁мыц	-2920
тивтә	-2921
хни	-2922
ыҭә	-2923
хәда	-2924
▁аам	-2925
каауеит	-2926
цра	-2927
-19	-2928
▁ҳақә	-2929
дир	-2930
Иахьа	-2931
▁акәны	-2932
шәи	-2933
▁ҳаш	-2934
▁иҭыҵ	-2935
қәоуп	-2936
▁Урыс	-2937
▁атури	-2938
▁иаалыр	-2939
уи	-2940
мб	-2941
▁шьоукы	-2942
▁ашьшьыҳәа	-2943
мца	-2944
▁...	-2945
ӡоуп	-2946
гап	-2947
гәыла	-2948
▁акәӡам	-2949
▁Аамҭа	-2950
шәарақәа	-2951
зыҟаҵара	-2952
▁Бара	-2953
▁алахәы	-2954
▁зықә	-2955
▁аусзуҩцәа	-2956
▁ицә	-2957
артиа	-2958
арк	-2959
▁Миха	-2960
суеит	-2961
▁ажьырныҳәа	-2962
▁адиректор	-2963
?!"	-2964
▁ахьи	-2965
▁Пу	-2966
▁иқәыр	-2967
▁ицон	-2968
гор	-2969
ӡаныҟә	-2970
▁жәабран	-2971
▁ахшыҩ	-2972
ҳау	-2973
зеилым	-2974
▁ицоит	-2975
шьала	-2976
▁рыбжьы	-2977
▁анапхгара	-2978
хьыз	-2979
арда	-2980
ора	-2981
▁ииаш	-2982
▁Кәыҵ	-2983
▁аган	-2984
кылаз	-2985
▁акәу	-2986
**	-2987
ҳәын	-2988
▁ишьҭа	-2989
▁уш	-2990
▁Афедерациа	-2991
узы	-2992
хаҵкы	-2993
▁еилыр	-2994
ез	-2995
зоу	-2996
▁ахацәа	-2997
Еи	-2998
вар	-2999
тит	-3000
ҟәарча	-3001
су	-3002
лега	-3003
цаны	-3004
▁саны	-3005
▁амаҭәа	-3006
▁лҳәан	-3007
▁шакәу	-3008
хынҳәит	-3009
▁ашәҭ	-3010
▁22	-3011
кара	-3012
▁хьан	-3013
дар	-3014
▁адыррақәа	-3015
▁ныр	-3016
▁еиҭах	-3017
еиқәа	-3018
▁Леон	-3019
▁хықә	-3020
ааҟ	-3021
▁ҽы	-3022
▁аусу	-3023
▁аҳақьым	-3024
Ма	-3025
бжьык	-3026
шьҭыз	-3027
▁ҵаҟа	-3028
▁имаз	-3029
▁рыда	-3030
▁мҩаԥыр	-3031
▁−	-3032
шьшьы	-3033
▁No	-3034
▁ҳаргьы	-3035
оук	-3036
хгьы	-3037
хаҵара	-3038
шар	-3039
ҭахеит	-3040
жәеинраалақәа	-3041
▁лакә	-3042
рҭадара	-3043
қәаб	-3044
ҳаи	-3045
мҭаз	-3046
▁лахь	-3047
ҭон	-3048
ҳәом	-3049
▁иҭар	-3050
рыжь	-3051
▁еилкаа	-3052
▁ирхы	-3053
▁аиха	-3054
қәшаҳаҭра	-3055
▁Алхас	-3056
хацәа	-3057
▁Асҭамыр	-3058
анба	-3059
▁ишыҟаз	-3060
Шь	-3061
цеи	-3062
ука	-3063
гьи	-3064
иссиа	-3065
▁Мап	-3066
▁аца	-3067
▁шԥа	-3068
нала	-3069
▁рнапы	-3070
▁ҳаа	-3071
бжьон	-3072
▁ирых	-3073
▁Ҟа	-3074
ҟәара	-3075
▁асоциа	-3076
▁аҷкәынцәа	-3077
бга	-3078
▁уахы	-3079
хәба	-3080
Ас	-3081
▁насыԥ	-3082
ԥеи	-3083
▁ацәыр	-3084
▁ахьын	-3085
▁соуп	-3086
▁шры	-3087
▁рымоуп	-3088
▁иҩна	-3089
сеи	-3090
кылан	-3091
▁инаи	-3092
ҳаражә	-3093
▁еиҳарак	-3094
хәхәа	-3095
▁Агәа	-3096
▁азоуп	-3097
▁Али	-3098
▁Беслан	-3099
лассы	-3100
▁адҵа	-3101
▁реила	-3102
ени	-3103
▁ԥса	-3104
▁аума	-3105
▁зхыҵ	-3106
▁C	-3107
▁ихала	-3108
пыл	-3109
ольк	-3110
▁Сгәы	-3111
хҭа	-3112
▁аиқәыр	-3113
▁ашәҟәыҩҩцәа	-3114
▁инҭа	-3115
▁ианалага	-3116
иан	-3117
▁ган	-3118
ҵәҟьаны	-3119
▁рҳәа	-3120
▁Амшын	-3121
▁алашара	-3122
▁ацҳа	-3123
▁Арахь	-3124
▁уажәа	-3125
хәар	-3126
▁абраҟа	-3127
▁уаргьы	-3128
ҩха	-3129
нықә	-3130
заалакгьы	-3131
шом	-3132
▁Ҿ	-3133
еп	-3134
▁шәеи	-3135
▁Ду	-3136
▁ихыр	-3137
▁жәла	-3138
қьыр	-3139
▁уҳәар	-3140
▁аҭыԥқәа	-3141
бза	-3142
▁али	-3143
▁аҳаир	-3144
▁ааны	-3145
ҽха	-3146
ӡеи	-3147
хәоит	-3148
▁ахьыр	-3149
▁шықәсы	-3150
сиан	-3151
сақәа	-3152
▁аӷба	-3153
▁Хәа	-3154
ҟәарчал	-3155
рыԥшь	-3156
▁анаа	-3157
цын	-3158
▁рыԥсҭазаара	-3159
ысҭа	-3160
ҵуан	-3161
▁иԥса	-3162
▁ҳам	-3163
▁21	-3164
сҳәа	-3165
Ара	-3166
гьырҭ	-3167
▁анагӡара	-3168
▁акоронавирус	-3169
▁аганахь	-3170
ӡоит	-3171
▁еиқәы	-3172
▁кыд	-3173
▁рыҟны	-3174
хыраа	-3175
▁сана	-3176
▁аинформа	-3177
▁Урыстәылеи	-3178
▁рыхьӡ	-3179
ҩҩцәа	-3180
▁хаҭала	-3181
ԥым	-3182
▁Иван	-3183
▁уигьы	-3184
▁анааи	-3185
▁лан	-3186
▁агәыԥ	-3187
▁аҵыхә	-3188
▁мчыла	-3189
▁убарҭ	-3190
дыс	-3191
ԥан	-3192
▁афымца	-3193
ҟазара	-3194
оураны	-3195
машьына	-3196
▁икыл	-3197
џьалбеит	-3198
лҵеит	-3199
▁аиҿкаара	-3200
ԥылоит	-3201
риаҟара	-3202
▁дарбан	-3203
ги	-3204
▁рҭыԥ	-3205
▁акырӡа	-3206
▁икәа	-3207
▁аҳәамҭа	-3208
ԥылеит	-3209
аам	-3210
кан	-3211
гәаа	-3212
▁хаа	-3213
▁рҽеи	-3214
▁Аҵыхәтәан	-3215
ҵын	-3216
▁Ди	-3217
▁ҟаԥшь	-3218
ӡар	-3219
шьын	-3220
▁иҭоу	-3221
культура	-3222
ԥырхага	-3223
▁аилкаара	-3224
ԥхьаӡоит	-3225
▁Кәыҵниа	-3226
ҭада	-3227
жьым	-3228
ҳәҳәа	-3229
▁нызқь	-3230
▁аамҭала	-3231
ҳәыр	-3232
▁алага	-3233
ҵи	-3234
▁ҿыцқәа	-3235
ентцәа	-3236
▁сахьа	-3237
▁Аахыҵ	-3238
▁арахә	-3239
лқәа	-3240
раҭа	-3241
сттә	-3242
▁анап	-3243
▁иаанагоит	-3244
ԥшыла	-3245
▁ҽнак	-3246
▁ҳамҭа	-3247
▁рацәаны	-3248
гама	-3249
▁Хы	-3250
ҭахузеи	-3251
▁рп	-3252
▁избан	-3253
ҵәи	-3254
▁ииас	-3255
▁агәҭа	-3256
▁24	-3257
▁аҭах	-3258
▁ҟалар	-3259
▁шыҟоу	-3260
ҿиамҭақәа	-3261
ҩаҽны	-3262
фир	-3263
▁сза	-3264
▁аҩнуҵҟа	-3265
▁Та	-3266
тәала	-3267
▁ахаан	-3268
▁милаҭ	-3269
▁Аԥсуаа	-3270
сҭаа	-3271
▁жәларбжьаратәи	-3272
▁Уаҟа	-3273
згәа	-3274
▁ауада	-3275
▁днықә	-3276
▁иаанаго	-3277
гӡо	-3278
▁аԥхьаҩ	-3279
толи	-3280
▁азын	-3281
▁ауадаҩ	-3282
▁аасҭа	-3283
▁еиҳара	-3284
ҳәоу	-3285
машәа	-3286
▁лхаҵа	-3287
▁уеизгьы	-3288
неиз	-3289
шьыз	-3290
▁ихәы	-3291
▁хьаас	-3292
асҭа	-3293
тәны	-3294
кьыс	-3295
қәырԥа	-3296
ԥшуп	-3297
енџьыр	-3298
аркьа	-3299
Ап	-3300
ҳәны	-3301
▁Уаԥс	-3302
уазгьы	-3303
▁аԥҳәызба	-3304
бр	-3305
ҵам	-3306
ҩуеит	-3307
ԥыц	-3308
▁идыруан	-3309
харгьы	-3310
▁иҵегь	-3311
▁иџьа	-3312
▁ибеит	-3313
▁Ста	-3314
ьынқә	-3315
ԥсаз	-3316
▁ҭагылазаашьа	-3317
лашь	-3318
до	-3319
▁акәзаргьы	-3320
▁азгәеиҭеит	-3321
▁Аҵ	-3322
хырц	-3323
аап	-3324
▁иааир	-3325
▁иаарт	-3326
цәажәарақәа	-3327
▁иф	-3328
рыл	-3329
ҵура	-3330
ԥшыр	-3331
гакәа	-3332
▁дынҭа	-3333
быз	-3334
▁Рус	-3335
туреи	-3336
хәама	-3337
▁шәыз	-3338
ҟақәа	-3339
ҳауан	-3340
▁руак	-3341
▁сала	-3342
уажәы	-3343
▁аҵакы	-3344
▁Избан	-3345
▁ихи	-3346
▁сааҭ	-3347
хха	-3348
хароуп	-3349
грат	-3350
▁хәыҷқәа	-3351
хашҭ	-3352
▁Ин	-3353
▁Ник	-3354
▁ателе	-3355
▁қәа	-3356
▁лнапы	-3357
▁200	-3358
иба	-3359
едиа	-3360
▁ишь	-3361
▁Быҭә	-3362
кәи	-3363
Амш	-3364
ыӷ	-3365
пресс	-3366
▁ә	-3367
▁Шьы	-3368
▁ачара	-3369
гәын	-3370
усқәа	-3371
ымш	-3372
▁ҳал	-3373
иза	-3374
хәны	-3375
диа	-3376
фара	-3377
▁ирым	-3378
▁аиз	-3379
▁аҟәша	-3380
▁Ҭе	-3381
жәара	-3382
рацәа	-3383
ӡбеит	-3384
▁ҳәагьы	-3385
кеи	-3386
▁аџьы	-3387
▁аадыр	-3388
▁аҵәы	-3389
бааит	-3390
▁иқәы	-3391
▁игылан	-3392
хӡы	-3393
ҵәо	-3394
▁инхоз	-3395
блаа	-3396
ҵәыжәҩа	-3397
иҵа	-3398
бом	-3399
▁рф	-3400
доуҳа	-3401
▁бзиоуп	-3402
ҿыр	-3403
ҵкыс	-3404
ԥхықә	-3405
▁жәҩан	-3406
▁ибон	-3407
▁ҳнеи	-3408
▁имоуп	-3409
▁алшара	-3410
▁шыҟаз	-3411
▁Насгьы	-3412
ҩба	-3413
▁дреи	-3414
▁иҭаз	-3415
▁ҟә	-3416
гьыли	-3417
▁шьҭы	-3418
▁аҵәа	-3419
▁лареи	-3420
▁мшаԥы	-3421
тәыс	-3422
▁амц	-3423
▁ихәа	-3424
▁алар	-3425
▁ганы	-3426
▁лыбжьы	-3427
ҭым	-3428
Аԥсуа	-3429
ыг	-3430
▁рын	-3431
▁Қьа	-3432
▁ажәак	-3433
▁Ер	-3434
бақәа	-3435
етра	-3436
понд	-3437
▁зал	-3438
мҭазы	-3439
▁Ач	-3440
сала	-3441
▁Мы	-3442
▁ашьҭы	-3443
▁ажәларқәа	-3444
галан	-3445
▁ибзиа	-3446
▁даргьы	-3447
▁акәхарын	-3448
ҷҷ	-3449
▁инала	-3450
▁гәакьа	-3451
валь	-3452
ьана	-3453
гақәҵа	-3454
▁иҩыза	-3455
▁қьа	-3456
хырҭа	-3457
▁Ажәлар	-3458
▁рҳәан	-3459
гылар	-3460
▁агара	-3461
▁мшәан	-3462
дида	-3463
лиас	-3464
ҟаҵа	-3465
▁ҟәы	-3466
ерман	-3467
еиқә	-3468
ьынқәба	-3469
▁ахыбра	-3470
гәалашәоит	-3471
егьых	-3472
ҿиаратә	-3473
ԥшыл	-3474
▁Амҩа	-3475
▁Раԥхьа	-3476
▁иҭаацәа	-3477
ҵбы	-3478
▁Гәа	-3479
▁амҩаду	-3480
даны	-3481
▁Сас	-3482
▁Апро	-3483
▁даақә	-3484
▁дгьыл	-3485
▁амшқәа	-3486
▁Ԥа	-3487
▁Хь	-3488
ҟәыр	-3489
▁рыхә	-3490
ҩара	-3491
мадара	-3492
▁идәықә	-3493
уада	-3494
▁аҿаԥхьа	-3495
▁культура	-3496
Ба	-3497
▁ицо	-3498
▁ирымаз	-3499
▁26	-3500
кәкәа	-3501
▁еиха	-3502
▁23	-3503
▁цә	-3504
▁ҟьа	-3505
▁атәым	-3506
▁акласс	-3507
▁быжь	-3508
ҩегьых	-3509
▁ҳры	-3510
▁ларгьы	-3511
▁жәпа	-3512
▁итәаз	-3513
▁аҳәаақәа	-3514
еиа	-3515
▁рыгә	-3516
▁абжьа	-3517
▁аӡбахә	-3518
боу	-3519
гу	-3520
▁инареи	-3521
кон	-3522
уазшәа	-3523
шәыз	-3524
▁ирҳәо	-3525
иҿы	-3526
▁акала	-3527
▁Ҳаз	-3528
ишь	-3529
тәии	-3530
▁зыз	-3531
респонд	-3532
Шә	-3533
ира	-3534
кәызеи	-3535
латон	-3536
хьынтә	-3537
анатә	-3538
▁иалага	-3539
гәыд	-3540
▁ида	-3541
▁аҩымҭа	-3542
.);	-3543
ӷьыц	-3544
▁ҩынтә	-3545
нык	-3546
▁иҟас	-3547
▁иалоу	-3548
лери	-3549
▁Кон	-3550
ӡаныҟәгаҩ	-3551
▁ашәҟәыҩҩы	-3552
▁аниба	-3553
шәоуп	-3554
▁иҭахаз	-3555
▁аҭаҳмада	-3556
▁Аџьынџьтәылатә	-3557
▁АА	-3558
▁аҩада	-3559
▁Аби	-3560
бӷа	-3561
зен	-3562
шьцыла	-3563
▁анапхга	-3564
▁иаҵанакуа	-3565
▁:	-3566
быжь	-3567
▁ирымоу	-3568
▁атәылақәа	-3569
▁Ко	-3570
ови	-3571
▁хын	-3572
▁Баҭал	-3573
▁ҟаҵаны	-3574
▁ади	-3575
▁имч	-3576
ааиуа	-3577
ҳәаша	-3578
дарақәа	-3579
▁инақәыршәаны	-3580
▁ҭбаа	-3581
ҵу	-3582
хаҵа	-3583
▁изыз	-3584
гомызт	-3585
шьцәеи	-3586
их	-3587
стема	-3588
▁ҳареи	-3589
орд	-3590
▁Адгәыр	-3591
сон	-3592
лек	-3593
зына	-3594
ынҵа	-3595
ҳәеи	-3596
▁зуа	-3597
▁арра	-3598
ԥыхьа	-3599
▁аефир	-3600
Ис	-3601
бна	-3602
шьцара	-3603
▁игылоу	-3604
естиваль	-3605
ҩуан	-3606
ԥсаны	-3607
гәуа	-3608
шьас	-3609
кылара	-3610
цәан	-3611
кур	-3612
▁27	-3613
аргь	-3614
▁хаз	-3615
ҵәҟьаз	-3616
блиа	-3617
▁лна	-3618
естор	-3619
ԥсеит	-3620
еицура	-3621
зыҟазаашьақәа	-3622
▁аруаа	-3623
▁маҵзура	-3624
▁лыз	-3625
▁аҟәара	-3626
зыл	-3627
хәуп	-3628
▁еиҿа	-3629
▁абыржәы	-3630
▁Тҟәарчал	-3631
...»	-3632
▁Евро	-3633
мазаҩ	-3634
▁ҷыдала	-3635
еиҳа	-3636
▁Аин	-3637
▁Реизара	-3638
▁цы	-3639
▁дунеи	-3640
▁иҳәон	-3641
▁иҷкәын	-3642
қәиҭу	-3643
▁Ашьа	-3644
дактор	-3645
▁аҽеи	-3646
▁Ашәҟәы	-3647
▁Аиааира	-3648
суан	-3649
қьышә	-3650
роз	-3651
еда	-3652
▁сынтәа	-3653
лер	-3654
▁аԥшь	-3655
▁2023	-3656
ааим	-3657
респондент	-3658
ҭых	-3659
▁иди	-3660
▁иҵегьы	-3661
▁ишаз	-3662
▁Баграт	-3663
▁Ажь	-3664
▁иааит	-3665
▁шым	-3666
▁дшыҟаз	-3667
жда	-3668
▁аԥыза	-3669
▁бым	-3670
▁Гәын	-3671
хәаԥшуаз	-3672
▁издыруа	-3673
▁ракәзар	-3674
шала	-3675
шш	-3676
▁анар	-3677
циҵеит	-3678
20	-3679
ԥи	-3680
или	-3681
нин	-3682
▁Ами	-3683
▁сҿы	-3684
▁дареи	-3685
▁иакәым	-3686
▁ахьчара	-3687
Иш	-3688
▁ыҟаӡам	-3689
▁рминистрра	-3690
оку	-3691
▁Ни	-3692
Ажәа	-3693
▁хҩык	-3694
ҵәақәа	-3695
▁зыхьӡ	-3696
бзиарахьчара	-3697
рқәа	-3698
▁рына	-3699
▁даҽакала	-3700
ото	-3701
каан	-3702
▁I	-3703
ург	-3704
▁би	-3705
▁аусбарҭа	-3706
ҵуаз	-3707
▁Аԥсныпресс	-3708
рыца	-3709
▁есы	-3710
▁ҟәа	-3711
▁Леуан	-3712
▁аӡәырҩы	-3713
▁еих	-3714
▁рҵа	-3715
уадаҩ	-3716
▁Акон	-3717
▁зыԥсы	-3718
шарақәа	-3719
▁аӡа	-3720
шьуеит	-3721
▁аԥсышәала	-3722
быс	-3723
▁Адгьыл	-3724
лор	-3725
едици	-3726
▁иаадыр	-3727
жәтә	-3728
▁раасҭа	-3729
▁иҟаиҵаз	-3730
▁ашьхақәа	-3731
лаԥшра	-3732
▁Уаанӡа	-3733
▁ахақәиҭра	-3734
▁ахԥатәи	-3735
▁ицоз	-3736
▁Украина	-3737
▁Кә	-3738
балак	-3739
▁дааҭ	-3740
▁имоу	-3741
▁сыԥс	-3742
бџьар	-3743
шҭаара	-3744
▁Алиас	-3745
▁аарла	-3746
еран	-3747
▁Ишԥа	-3748
▁ашьҭа	-3749
▁Даур	-3750
▁азна	-3751
жьымҭан	-3752
дә	-3753
ӷан	-3754
гас	-3755
инг	-3756
лаи	-3757
зыԥшыз	-3758
▁данааи	-3759
▁ааԥхьара	-3760
▁агәаҟ	-3761
▁иааны	-3762
бжа	-3763
Ҳаи	-3764
ҵаҟа	-3765
▁Бадраҟ	-3766
мо	-3767
гьама	-3768
хам	-3769
▁ажурнали	-3770
▁илымҳа	-3771
▁днаи	-3772
▁Убасҟан	-3773
▁ажәеинраалақәа	-3774
ахә	-3775
Абас	-3776
џьет	-3777
▁Платон	-3778
әыџь	-3779
▁иага	-3780
▁бзиақәа	-3781
▁аибашьцәа	-3782
ҭба	-3783
▁Аџь	-3784
аауаз	-3785
▁иахьын	-3786
▁ирыдыр	-3787
▁Ҳәара	-3788
▁инареиҳаны	-3789
Шәа	-3790
баҟа	-3791
пыҵа	-3792
▁шамаха	-3793
лбы	-3794
ҳҵа	-3795
▁еилыс	-3796
▁Лакоба	-3797
:00	-3798
рал	-3799
ӡит	-3800
кәых	-3801
▁иқәын	-3802
▁Си	-3803
хәоз	-3804
ҩыла	-3805
▁Агәы	-3806
хҿы	-3807
▁Аԥса	-3808
▁лых	-3809
ҳауаз	-3810
▁Шьҭа	-3811
▁хәыц	-3812
қәшәаз	-3813
хәаԥшит	-3814
▁аԥшаҳәа	-3815
▁ҳха	-3816
гареи	-3817
▁еиҵа	-3818
▁иҟана	-3819
▁шәаԥхьар	-3820
ԥхьагәа	-3821
VID	-3822
лыҵ	-3823
шьоз	-3824
▁Нан	-3825
лҳәеит	-3826
тикатә	-3827
тика	-3828
OVID	-3829
▁сшы	-3830
гәаӷь	-3831
дырӡом	-3832
атиа	-3833
▁иҭи	-3834
▁Ҭемыр	-3835
лахьынҵа	-3836
▁ҳарҭ	-3837
▁ахадара	-3838
▁икыд	-3839
▁иалыр	-3840
ԥҟа	-3841
▁ҿымҭ	-3842
▁хшыҩ	-3843
▁ииаша	-3844
▁Александр	-3845
▁ата	-3846
ҵакәа	-3847
бым	-3848
▁иакәзар	-3849
▁рхаҭарнак	-3850
▁Бас	-3851
▁аҩна	-3852
дырит	-3853
митри	-3854
ҭахын	-3855
▁иреиуоуп	-3856
бзы	-3857
▁бзианы	-3858
▁ҟас	-3859
ҵабырг	-3860
итет	-3861
церт	-3862
▁ҳаиба	-3863
мыкәша	-3864
▁ишьапы	-3865
▁ԥха	-3866
гәыҵа	-3867
▁аҭаҭын	-3868
▁анхацәа	-3869
▁асовет	-3870
▁ашьапы	-3871
кылт	-3872
хәит	-3873
▁Ина	-3874
▁акәы	-3875
ома	-3876
▁та	-3877
слав	-3878
ххаа	-3879
▁џьаргьы	-3880
▁еиҭеиҳәеит	-3881
кар	-3882
▁рымҩа	-3883
▁сыздыруам	-3884
▁рыманы	-3885
аран	-3886
лана	-3887
ӷәӷәеит	-3888
▁амилаҭтә	-3889
шәом	-3890
▁COVID	-3891
▁Шьынқәба	-3892
ком	-3893
ххы	-3894
дыруеи	-3895
Алашара	-3896
▁иаҳагьы	-3897
циеи	-3898
▁ӷәӷәала	-3899
екст	-3900
▁Шәача	-3901
▁дҵааит	-3902
▁Даара	-3903
▁аӡыр	-3904
▁хьыӡ	-3905
официа	-3906
мҩаԥгашьа	-3907
▁Жәа	-3908
▁Бебиа	-3909
▁еибашь	-3910
дәылҵит	-3911
қәна	-3912
▁Акыр	-3913
сҳәоит	-3914
▁асасцәа	-3915
▁Уажәшьҭа	-3916
▁ргана	-3917
▁адәахьы	-3918
Ааи	-3919
ԥсоу	-3920
цәқәа	-3921
▁аҟәы	-3922
▁ирха	-3923
▁Габ	-3924
пара	-3925
▁зҽа	-3926
ҿаԥшит	-3927
▁акоманда	-3928
раан	-3929
ҵәаз	-3930
▁рымам	-3931
▁иԥхьаӡ	-3932
▁Қарҭ	-3933
ҟәыҵ	-3934
шьапқәа	-3935
▁иҭабуп	-3936
▁ҳәарада	-3937
шам	-3938
ыд	-3939
қьан	-3940
▁Иреи	-3941
▁ацәгьа	-3942
▁мца	-3943
ҿыц	-3944
ҟәымҵ	-3945
▁ируа	-3946
▁снапы	-3947
▁рҭоурых	-3948
хәу	-3949
ԥеиԥш	-3950
▁дтәан	-3951
▁иамаз	-3952
▁акьыԥхь	-3953
▁рҳәон	-3954
хәаԥшуеит	-3955
▁бызшәала	-3956
▁иҟны	-3957
икцәа	-3958
▁ахшара	-3959
ула	-3960
ҵәаа	-3961
хылаԥш	-3962
▁уиа	-3963
ызгьы	-3964
▁Дырмит	-3965
▁мыцхәы	-3966
▁28	-3967
ԥаны	-3968
ҳаӡоу	-3969
▁сыҟа	-3970
▁Ли	-3971
▁ахьеи	-3972
▁Избанзар	-3973
▁зи	-3974
▁Аԥсы	-3975
▁ааԥын	-3976
▁аамҭақәа	-3977
▁ашәҟәқәа	-3978
оема	-3979
нырра	-3980
▁Шьам	-3981
зыԥшуп	-3982
▁ахьаа	-3983
▁ианеи	-3984
шоу	-3985
▁хԥа	-3986
▁ақьаад	-3987
▁аҳәоит	-3988
жәба	-3989
▁кон	-3990
шәынҭ	-3991
▁Амш	-3992
▁Инал	-3993
▁ҵакы	-3994
▁ԥшьа	-3995
▁аҭоурыхтә	-3996
▁иаалырҟьаны	-3997
орис	-3998
▁иуадаҩ	-3999
▁иҭахын	-4000
ҟьақәа	-4001
аразы	-4002
цәеит	-4003
ԥхьоит	-4004
нан	-4005
ҩҩы	-4006
олиу	-4007
шьыжь	-4008
рагылара	-4009
▁аԥсыӡ	-4010
▁Дмитри	-4011
▁аишьцәа	-4012
▁иахьынӡа	-4013
ҳал	-4014
иаԥҳа	-4015
▁иаҳҳәап	-4016
тәык	-4017
иашаз	-4018
▁Алықь	-4019
▁сыбла	-4020
гәыл	-4021
Уажәы	-4022
лозар	-4023
лҭеит	-4024
▁аман	-4025
етеран	-4026
▁Рауль	-4027
зала	-4028
▁ԥхыӡ	-4029
▁театр	-4030
ӷәӷәаны	-4031
нас	-4032
ҭарц	-4033
ради	-4034
мазар	-4035
▁знапы	-4036
зго	-4037
▁анҵәа	-4038
▁Жәларбжьаратәи	-4039
ҵанакуа	-4040
▁ракәым	-4041
ӷәра	-4042
џьыба	-4043
▁уана	-4044
▁Аҵара	-4045
▁аҩыџьа	-4046
▁иреиӷьу	-4047
▁/	-4048
▁29	-4049
▁ишу	-4050
▁уааи	-4051
анырцә	-4052
▁адә	-4053
▁ҭаацәа	-4054
поз	-4055
шьҭи	-4056
аԥ	-4057
ицун	-4058
▁абырг	-4059
▁иамоуп	-4060
ымызт	-4061
▁аколнхара	-4062
▁даацәажәеит	-4063
▁имҩаԥыр	-4064
ырхаҵа	-4065
▁Валери	-4066
▁иҟаҵаны	-4067
ӡәк	-4068
▁Гал	-4069
економ	-4070
ларазы	-4071
▁иаҳәшьа	-4072
?»	-4073
ҭыхы	-4074
хьеи	-4075
ҭнықалақь	-4076
▁иалагоит	-4077
гатә	-4078
▁Акы	-4079
ҟоума	-4080
археит	-4081
▁збоит	-4082
▁зқәым	-4083
аал	-4084
▁Апоет	-4085
мга	-4086
▁иҩыз	-4087
цәеижь	-4088
▁еиҿкаа	-4089
хьхьи	-4090
▁Гәым	-4091
▁Аиаша	-4092
▁ҳамоуп	-4093
▁аџьабаа	-4094
ыҩ	-4095
самб	-4096
суаз	-4097
▁Иза	-4098
▁ҟарҵеит	-4099
▁Адәныҟатәи	-4100
ҿлым	-4101
▁лаша	-4102
▁мамзар	-4103
бус	-4104
бзоу	-4105
▁дзыр	-4106
ронт	-4107
анааҭ	-4108
▁поет	-4109
▁дыҟамызт	-4110
▁аҵаҟа	-4111
▁Быҭәба	-4112
▁русура	-4113
▁убасҟан	-4114
▁асахьаркыратә	-4115
еми	-4116
такль	-4117
ҟәны	-4118
▁аал	-4119
гаразы	-4120
▁форма	-4121
ҭуа	-4122
дина	-4123
цқьа	-4124
▁Го	-4125
дидат	-4126
▁ддыр	-4127
▁иҟалоит	-4128
анар	-4129
▁избоит	-4130
СС	-4131
дәыл	-4132
уреи	-4133
ааигәара	-4134
▁аԥхь	-4135
▁дрыз	-4136
▁рцәа	-4137
▁шықәсык	-4138
▁аҵеи	-4139
▁Иарбан	-4140
▁апробле	-4141
▁акур	-4142
Ра	-4143
▁напы	-4144
▁ԥхьа	-4145
заареи	-4146
▁Агрба	-4147
Ка	-4148
ҟало	-4149
▁мшы	-4150
▁лоуп	-4151
▁атеатр	-4152
еим	-4153
▁ча	-4154
▁ҵы	-4155
▁абы	-4156
▁Шаҟа	-4157
▁иагьы	-4158
▁полит	-4159
ҟарақәа	-4160
▁сш	-4161
смен	-4162
▁рыд	-4163
▁шьаҭас	-4164
▁азыр	-4165
▁ахьҭа	-4166
▁иум	-4167
ҟалеит	-4168
▁хыԥхьаӡара	-4169
▁рҟынтә	-4170
▁Ҳаџьымба	-4171
▁сц	-4172
▁ажәылара	-4173
▁иҳ	-4174
шьха	-4175
▁ирҿа	-4176
▁институт	-4177
▁дәы	-4178
▁ааха	-4179
▁уца	-4180
▁ҽеи	-4181
▁шьаҿа	-4182
ольклор	-4183
хынҳәны	-4184
стра	-4185
ҽыжә	-4186
▁зеи	-4187
аатә	-4188
биект	-4189
▁шәыр	-4190
▁ҳана	-4191
ектакль	-4192
чеи	-4193
анда	-4194
▁ҭоурых	-4195
хаша	-4196
одар	-4197
▁дналагеит	-4198
шк	-4199
▁уар	-4200
▁уза	-4201
▁абыл	-4202
▁Ашьҭахь	-4203
▁аишәа	-4204
▁ирласны	-4205
рин	-4206
зегь	-4207
хьтәи	-4208
▁аибашь	-4209
▁афатә	-4210
▁даҽаӡәы	-4211
▁инапқәа	-4212
▁ахәмар	-4213
▁раахыс	-4214
На	-4215
▁аас	-4216
▁ианыз	-4217
▁иахьеи	-4218
▁амҩаԥгара	-4219
▁ааҭ	-4220
▁сҳәан	-4221
гәоу	-4222
иашоуп	-4223
иргеит	-4224
▁аманы	-4225
порт	-4226
▁Актәи	-4227
▁ииа	-4228
▁ишры	-4229
▁аԥхын	-4230
▁акәхеит	-4231
▁дҩагылан	-4232
▁рҽ	-4233
каарц	-4234
▁Би	-4235
▁афа	-4236
ӡәӡәа	-4237
Уажә	-4238
ҵәҟьоу	-4239
милаҭтә	-4240
▁агәаанагара	-4241
хна	-4242
▁Жь	-4243
ҭҵаа	-4244
қәо	-4245
▁Нестор	-4246
▁амар	-4247
ынха	-4248
▁бџьар	-4249
▁уамак	-4250
ӷәӷәара	-4251
▁ухаҵкы	-4252
▁Ат	-4253
▁амам	-4254
▁ақәыр	-4255
▁сахьы	-4256
окумент	-4257
▁напхгара	-4258
фо	-4259
хиа	-4260
▁хь	-4261
Анцәа	-4262
гароуп	-4263
маншәа	-4264
▁Асҭан	-4265
▁аазыр	-4266
ҟазаара	-4267
▁азеиԥш	-4268
шәтә	-4269
▁ацәы	-4270
ҳаџьыр	-4271
▁Анқәаб	-4272
кт	-4273
пала	-4274
лициа	-4275
▁ахықә	-4276
гы	-4277
▁ахәаԥш	-4278
▁ахархәа	-4279
▁еицырдыруа	-4280
кылоз	-4281
▁исыр	-4282
▁диа	-4283
шьҭар	-4284
▁иаҩыз	-4285
▁рыман	-4286
▁арыцҳара	-4287
▁ақыҭақәа	-4288
жьуа	-4289
▁шәи	-4290
кахьала	-4291
▁зынӡаск	-4292
▁сша	-4293
▁аԥсны	-4294
бзиабара	-4295
▁абзиара	-4296
▁ахьыҟоу	-4297
▁Владислав	-4298
▁аура	-4299
▁қәыԥш	-4300
▁кыл	-4301
▁захьӡу	-4302
ҭагьы	-4303
▁Мари	-4304
▁адоу	-4305
▁Аԥхьа	-4306
▁Борис	-4307
▁астуд	-4308
Жә	-4309
▁сыҟан	-4310
▁ашәахәа	-4311
▁!	-4312
зҵаа	-4313
тәарҭа	-4314
барҭақәа	-4315
ломызт	-4316
▁иуҳәозар	-4317
ҵыхны	-4318
иуџьет	-4319
▁Михаил	-4320
▁здыруа	-4321
Аҳ	-4322
▁атур	-4323
▁ашәара	-4324
▁рҿ	-4325
▁рыԥс	-4326
▁снар	-4327
▁аҭыԥҳа	-4328
хәыцуан	-4329
▁Егьырҭ	-4330
шев	-4331
▁аартны	-4332
▁Сталин	-4333
гәырӷьаҵәа	-4334
▁ԥыҭк	-4335
▁абарҵа	-4336
шьақәыргылара	-4337
▁сны	-4338
▁хьы	-4339
▁иаба	-4340
▁ауадаҩрақәа	-4341
дмыр	-4342
ҩызара	-4343
пылампыл	-4344
раҭашәара	-4345
лгеит	-4346
шьақәа	-4347
▁анхара	-4348
▁саԥхьа	-4349
гәалашәара	-4350
Иу	-4351
▁ҭоу	-4352
▁Убарҭ	-4353
рԥ	-4354
▁ԥыр	-4355
▁хьшәашәа	-4356
▁иазеиҭеиҳәеит	-4357
▁ҳаамҭа	-4358
ҳәоуп	-4359
ӷьара	-4360
▁ахра	-4361
шәақәа	-4362
рҭара	-4363
▁дахьын	-4364
▁апоезиа	-4365
▁или	-4366
▁рҿаԥхьа	-4367
брақәа	-4368
▁иаҵәа	-4369
об	-4370
ино	-4371
шыра	-4372
▁амчра	-4373
▁аҟазшьа	-4374
дры	-4375
ҭаҿы	-4376
ҭарақәа	-4377
▁дырҩегьых	-4378
ҩақәа	-4379
▁агәыӷра	-4380
▁цхыраара	-4381
▁иалҵ	-4382
ԥыз	-4383
галеит	-4384
деит	-4385
▁иҭыԥ	-4386
▁ауаҩытәыҩса	-4387
▁Сам	-4388
▁Бзыԥ	-4389
ҩаш	-4390
▁апар	-4391
еволиу	-4392
лагара	-4393
гәырӷьеит	-4394
▁акраамҭа	-4395
Џь	-4396
ԥҵәа	-4397
▁мыз	-4398
хәаша	-4399
уал	-4400
цак	-4401
ӡыз	-4402
ерика	-4403
▁Чач	-4404
▁далҵит	-4405
▁даҽазны	-4406
кам	-4407
орум	-4408
▁днеины	-4409
▁аҭӡам	-4410
згаз	-4411
зеилкаа	-4412
▁ҳтәыла	-4413
▁егьырҭгьы	-4414
ԥо	-4415
▁алаф	-4416
▁иӡбахә	-4417
▁ажурнал	-4418
▁ст	-4419
▁иду	-4420
▁Ҵәыџь	-4421
▁маӡала	-4422
▁наӡаӡа	-4423
еч	-4424
ҩыр	-4425
▁анҭыҵ	-4426
мзазы	-4427
▁ақырҭцәа	-4428
лыс	-4429
цена	-4430
▁Аӡы	-4431
▁раҳ	-4432
▁игылоуп	-4433
▁иҵәа	-4434
аӡа	-4435
▁иаҳасабала	-4436
ҳәала	-4437
ԥшааит	-4438
кәыршаны	-4439
▁иаарласны	-4440
аар	-4441
шьаа	-4442
▁дир	-4443
багьы	-4444
рези	-4445
▁Шәы	-4446
хазшәа	-4447
ҩымҭақәа	-4448
▁аргылара	-4449
▁илахь	-4450
нана	-4451
▁кьаҿ	-4452
кьыԥхь	-4453
▁соу	-4454
ԥхықәра	-4455
▁иԥшәма	-4456
ҷҷа	-4457
усура	-4458
хынла	-4459
▁ҳәаа	-4460
▁аматериал	-4461
▁мыжда	-4462
▁ашьақәыр	-4463
арҭаа	-4464
ҭахӡам	-4465
▁рба	-4466
ҵареи	-4467
▁шықәс	-4468
▁аҷы	-4469
▁Ахәы	-4470
Мап	-4471
▁ран	-4472
▁рымч	-4473
заҵәык	-4474
уф	-4475
ԥаа	-4476
▁Беи	-4477
▁Саида	-4478
▁гәаныла	-4479
▁ақьыр	-4480
▁сыҷкәын	-4481
▁днеит	-4482
▁лыԥсы	-4483
анӡагьы	-4484
▁Анаҩс	-4485
▁анкьа	-4486
▁иҩымҭақәа	-4487
қәоз	-4488
▁Дад	-4489
Амшын	-4490
џьыка	-4491
▁аӡын	-4492
▁иҳамоу	-4493
▁иаанхаз	-4494
ӡӷаб	-4495
▁даахьа	-4496
▁исыл	-4497
▁Ашьха	-4498
дырратә	-4499
▁аԥенџьыр	-4500
▁мҩаԥысит	-4501
▁Бы	-4502
шьаз	-4503
▁аур	-4504
▁Марҭа	-4505
▁ауаажәларратә	-4506
мас	-4507
ҟынӡа	-4508
▁ианааи	-4509
▁ирызку	-4510
▁лашара	-4511
фар	-4512
ҳаҭ	-4513
▁агәыр	-4514
ҟьоит	-4515
▁жәытә	-4516
шьк	-4517
самбль	-4518
гәахә	-4519
▁ихьа	-4520
гаха	-4521
▁Пав	-4522
▁Путин	-4523
▁қы	-4524
ульт	-4525
дырам	-4526
мҭоуп	-4527
▁ахыс	-4528
нир	-4529
▁еиза	-4530
▁иҳар	-4531
кад	-4532
▁Заур	-4533
стантин	-4534
▁алҵшәа	-4535
иазҵааит	-4536
▁иҩы	-4537
▁иаас	-4538
▁дазхәыц	-4539
хәрас	-4540
▁алым	-4541
лег	-4542
нара	-4543
▁Макьана	-4544
баҭ	-4545
қәреи	-4546
ԥшьоу	-4547
▁Пицун	-4548
▁ашәах	-4549
легациа	-4550
▁аҳәаанырцә	-4551
лакы	-4552
▁иахә	-4553
▁уареи	-4554
▁дааҩна	-4555
▁ич	-4556
▁уаҵә	-4557
▁ижәлар	-4558
▁ҭыԥқәа	-4559
зымдыруаз	-4560
иааи	-4561
ҵыкәа	-4562
▁атәылауаа	-4563
▁гьы	-4564
ԥсара	-4565
▁Кәар	-4566
▁адепутатцәа	-4567
ева	-4568
▁Христ	-4569
▁днеин	-4570
▁рыдыр	-4571
▁аформа	-4572
▁раҟара	-4573
▁иҿаԥхьа	-4574
▁издыруеит	-4575
▁Су	-4576
▁лзы	-4577
ӷәаза	-4578
▁асоциалтә	-4579
ҟас	-4580
уама	-4581
спорт	-4582
▁иацә	-4583
едицинатә	-4584
:2	-4585
усҭ	-4586
кура	-4587
▁раз	-4588
▁иуан	-4589
хьчаратә	-4590
Арҭ	-4591
▁Ио	-4592
шәҵа	-4593
лааит	-4594
▁сабду	-4595
▁аветеран	-4596
▁Уаԥстәыла	-4597
ӷьыз	-4598
ҵамҭақәа	-4599
пуа	-4600
▁фак	-4601
▁аҽыр	-4602
ҿиамҭа	-4603
▁Руслан	-4604
енко	-4605
тист	-4606
ҟаза	-4607
ҭааит	-4608
▁анхаҩы	-4609
▁Алықьса	-4610
тиор	-4611
▁иав	-4612
ԥышәыр	-4613
▁ихәда	-4614
▁здыр	-4615
▁сымҩа	-4616
ференциа	-4617
▁убасҟак	-4618
▁акорреспондент	-4619
Убас	-4620
▁Анд	-4621
ӡәгьы	-4622
▁шықәсқәа	-4623
▁анапхгаҩы	-4624
▁иг	-4625
▁ит	-4626
▁Бага	-4627
▁Бзиа	-4628
▁алыр	-4629
▁лажәақәа	-4630
▁аҭаацәара	-4631
ҟьоз	-4632
▁Дыз	-4633
▁аӡыхь	-4634
▁закәан	-4635
гыларатә	-4636
▁рыӡбахә	-4637
ҩаны	-4638
хароу	-4639
▁амузы	-4640
бург	-4641
▁бла	-4642
▁ишҟа	-4643
каауан	-4644
▁иахьи	-4645
▁тәыла	-4646
қәир	-4647
тел	-4648
цәымӷ	-4649
▁Абыр	-4650
ҿаԥхьа	-4651
▁иатәу	-4652
▁Сасрыҟәа	-4653
заҵә	-4654
шьыр	-4655
▁сымоуп	-4656
лит	-4657
▁маӡа	-4658
▁иаары	-4659
шьҭалеит	-4660
тәоит	-4661
▁рҽыр	-4662
▁нырцә	-4663
▁сашьа	-4664
▁зҳәо	-4665
▁иадҳәалоу	-4666
▁<	-4667
▁алакә	-4668
▁Еф	-4669
▁Адыр	-4670
▁ахәышәтәырҭа	-4671
овест	-4672
▁арба	-4673
▁иаԥса	-4674
▁амҩақәа	-4675
ушәа	-4676
▁дыҩ	-4677
▁нау	-4678
екциа	-4679
гыларц	-4680
▁асаит	-4681
▁Пи	-4682
▁Ҵа	-4683
▁дца	-4684
нагоит	-4685
дкылара	-4686
ынтәа	-4687
▁аҵарауаа	-4688
▁аполитикатә	-4689
хшыҩ	-4690
▁ԥша	-4691
▁ахьым	-4692
ҩыџьагьы	-4693
▁ихьы	-4694
▁ли	-4695
Зны	-4696
шьак	-4697
▁ану	-4698
▁Иааи	-4699
▁сцоит	-4700
▁лакәын	-4701
▁уамашәа	-4702
икит	-4703
инуҭ	-4704
расн	-4705
ҭбеи	-4706
▁бжь	-4707
дгылеит	-4708
▁аҭынчра	-4709
▁мҩаԥысуеит	-4710
шьра	-4711
▁унеи	-4712
▁Ҽнак	-4713
▁па	-4714
бжыш	-4715
▁аеп	-4716
не	-4717
ԥеит	-4718
шьҭыр	-4719
▁акан	-4720
▁аҩыз	-4721
▁афронт	-4722
▁аӡбара	-4723
Аҟәа	-4724
▁иҭоуп	-4725
▁уры	-4726
▁иҟамызт	-4727
Ак	-4728
анс	-4729
наҭ	-4730
▁амҩан	-4731
▁X	-4732
▁(1	-4733
▁аинформациа	-4734
наки	-4735
▁Ԥхын	-4736
ҳәааит	-4737
ҵаразы	-4738
▁зба	-4739
▁ирны	-4740
лк	-4741
хык	-4742
▁имыр	-4743
иабр	-4744
кақәа	-4745
▁акра	-4746
ардуан	-4747
нагӡатәқәа	-4748
▁Аԥсҭазаара	-4749
виу	-4750
▁ажь	-4751
ҵароуп	-4752
ԥшаара	-4753
▁Аҩбатәи	-4754
▁лыблақәа	-4755
қәан	-4756
ҵәоит	-4757
▁сзыр	-4758
▁иҟаҵа	-4759
▁агәала	-4760
ҟәымҵӡакәа	-4761
наи	-4762
▁аҳаҭыр	-4763
▁кә	-4764
▁Ахы	-4765
▁Ихы	-4766
▁ает	-4767
▁иааиуа	-4768
официалтә	-4769
▁аҳасабала	-4770
▁иалагӡаны	-4771
ԥхо	-4772
Аб	-4773
▁Аллаҳ	-4774
▁ароман	-4775
▁алахәылацәа	-4776
▁уас	-4777
ҵәҟьагьы	-4778
▁џьу	-4779
▁Гьаргь	-4780
цым	-4781
ԥхьо	-4782
▁иҷы	-4783
хәыцит	-4784
▁зҵаара	-4785
▁дха	-4786
▁иҭан	-4787
қырҭуа	-4788
гьежьуа	-4789
▁рыҭара	-4790
ела	-4791
▁Иуа	-4792
цҳаит	-4793
▁сааи	-4794
куратура	-4795
▁Иаҳҳәап	-4796
лла	-4797
▁Аӡәы	-4798
▁аимп	-4799
▁рза	-4800
ҟәҟәа	-4801
маданы	-4802
▁ҵыс	-4803
ԥарцәа	-4804
▁ирҭагӡаны	-4805
▁рхаҭарнакцәа	-4806
Аш	-4807
▁Барц	-4808
▁иаир	-4809
▁Ҳаџьара	-4810
дам	-4811
Усҟан	-4812
▁Константин	-4813
ҷк	-4814
▁ашәыр	-4815
мацара	-4816
хьымӡӷ	-4817
▁ибжьа	-4818
▁поезиа	-4819
▁Адлеи	-4820
▁адәыӷба	-4821
▁алхрақәа	-4822
▁аусурақәа	-4823
▁аҭыԥантәи	-4824
нариа	-4825
жьуеит	-4826
▁аиқәшаҳаҭра	-4827
ччон	-4828
▁дсым	-4829
▁шьҭахьҟа	-4830
ило	-4831
▁Иҭа	-4832
▁имы	-4833
▁ҳҭа	-4834
▁Нхыҵ	-4835
▁ихадоу	-4836
▁изышьҭоу	-4837
ҳаб	-4838
▁дзым	-4839
▁иҟәа	-4840
▁аԥышәа	-4841
▁ауахәама	-4842
▁қ	-4843
▁Аҳә	-4844
▁алы	-4845
лагаз	-4846
▁даха	-4847
цк	-4848
шӡа	-4849
▁сҽа	-4850
▁ҵәа	-4851
хана	-4852
▁ула	-4853
ԥхеит	-4854
▁дагь	-4855
ҿкаара	-4856
қәакгьы	-4857
▁имҩаԥысуаз	-4858
ҟәын	-4859
▁аҭакәажә	-4860
▁иҳаз	-4861
▁рҿын	-4862
сшьоит	-4863
қәшәеит	-4864
даҳ	-4865
▁гәаҟ	-4866
▁ҳәынҭқарра	-4867
▁амал	-4868
▁дууп	-4869
▁ахьыӡ	-4870
ныҳәалеит	-4871
▁ажәабжьқәа	-4872
сар	-4873
▁ахьынӡа	-4874
ӷар	-4875
▁Хә	-4876
жәыр	-4877
▁ҳҿы	-4878
жәаны	-4879
▁иҟоузеи	-4880
▁аинтерес	-4881
▁диит	-4882
▁ицаз	-4883
▁рхала	-4884
▁жәлары	-4885
про	-4886
аршә	-4887
▁ирыд	-4888
▁ражәа	-4889
▁сымам	-4890
ҵом	-4891
▁ииз	-4892
рҭеит	-4893
▁иаал	-4894
▁дныҩна	-4895
▁ацәаҳәақәа	-4896
▁аҵыхәтәаны	-4897
хыл	-4898
▁2022	-4899
итартә	-4900
▁аҭаца	-4901
▁иааигәа	-4902
▁ачы	-4903
▁адәныҟатәи	-4904
шра	-4905
цәыхара	-4906
▁уажәгьы	-4907
▁имҩаԥысит	-4908
Амала	-4909
игеит	-4910
ԥхьан	-4911
▁ишаа	-4912
▁урыс	-4913
хәыҷра	-4914
ҳәакәа	-4915
▁шамахамзар	-4916
итали	-4917
▁[	-4918
...>	-4919
▁иаг	-4920
▁лыр	-4921
▁рхәы	-4922
ҩуаз	-4923
▁Иха	-4924
▁зхыҵуа	-4925
▁ҿи	-4926
▁аҳәоу	-4927
▁днары	-4928
▁ахатәы	-4929
ԥаз	-4930
цалак	-4931
▁Аминистрцәа	-4932
реҭ	-4933
▁Қә	-4934
▁ҭыр	-4935
анаҵы	-4936
гыларақәа	-4937
шьоу	-4938
▁Аса	-4939
▁уқә	-4940
ҳәауа	-4941
усҭада	-4942
харала	-4943
▁акагьы	-4944
▁иалахәыз	-4945
ыртә	-4946
▁Сыз	-4947
иатәи	-4948
▁нал	-4949
▁ҳаб	-4950
казы	-4951
▁мза	-4952
▁даныр	-4953
▁ирзеи	-4954
▁Даа	-4955
▁Красн	-4956
ҳараҩык	-4957
▁аԥсшьара	-4958
литература	-4959
цан	-4960
иашоу	-4961
▁ишыс	-4962
▁рацәала	-4963
▁изымдыруа	-4964
цуп	-4965
▁еиӷьуп	-4966
▁рымҩаԥгара	-4967
ССР	-4968
икеи	-4969
лԥаз	-4970
▁шыл	-4971
ҵшьны	-4972
ԥсоуп	-4973
▁<...>	-4974
гӡеит	-4975
▁дани	-4976
▁нары	-4977
▁аҩаӡара	-4978
ҩр	-4979
▁АҶ	-4980
▁рар	-4981
▁еица	-4982
шьагьы	-4983
хәыцуаз	-4984
лых	-4985
▁00	-4986
▁Уахь	-4987
▁иаах	-4988
▁***	-4989
ҟамыз	-4990
ҟынтә	-4991
▁ақәԥара	-4992
▁ақьырсиан	-4993
доуп	-4994
▁уск	-4995
ынҵақәа	-4996
▁змамыз	-4997
▁Леуанти	-4998
▁хҭыс	-4999
хәаԥшы	-5000
иурҭа	-5001
ԥхьаӡо	-5002
▁ацәаҳәа	-5003
▁леиԥш	-5004
▁Аԥсадгьыл	-5005
▁ацәқәырԥа	-5006
▁ҳза	-5007
ҳҵоит	-5008
ҵамҭа	-5009
▁раҳа	-5010
▁ҳаны	-5011
мамызт	-5012
цкәа	-5013
ҳәуа	-5014
▁иалаз	-5015
▁машьына	-5016
жж	-5017
со	-5018
▁алеи	-5019
▁лгәа	-5020
хьоума	-5021
▁ре	-5022
бзиоуп	-5023
ҵаратә	-5024
хьынтәи	-5025
▁жәеинраала	-5026
ҿақәа	-5027
▁алҩа	-5028
▁цәаҳәа	-5029
шьқәа	-5030
▁Ажәакала	-5031
▁адгылара	-5032
гәалашәеит	-5033
▁уимоу	-5034
бартә	-5035
▁Иҟалап	-5036
▁иҟаӡам	-5037
▁атәылауаҩ	-5038
сиор	-5039
хәыҭ	-5040
▁ишьақәыр	-5041
жет	-5042
▁АҶА	-5043
ҟантә	-5044
▁излеи	-5045
▁ҟалом	-5046
▁ҵуеит	-5047
▁рнапқәа	-5048
▁ыҟамызт	-5049
▁зеиԥшроу	-5050
ԥсаа	-5051
▁аим	-5052
▁иазыр	-5053
▁аекономика	-5054
хк	-5055
хразы	-5056
▁аилатәара	-5057
емо	-5058
▁дка	-5059
▁абахҭа	-5060
ерс	-5061
▁Фа	-5062
шьыц	-5063
▁апат	-5064
ильм	-5065
▁ҵар	-5066
▁Игәы	-5067
вид	-5068
▁раб	-5069
ыгшәы	-5070
▁анасыԥ	-5071
▁ашырҳәа	-5072
▁аҳҭнықалақь	-5073
шәомызт	-5074
▁Европа	-5075
▁Кәасҭа	-5076
жак	-5077
▁аҩра	-5078
▁илыз	-5079
▁даары	-5080
▁иаҿыз	-5081
▁сцеит	-5082
ҳәомызт	-5083
▁алитературатә	-5084
цон	-5085
▁ижәҩа	-5086
ҳәшьцәа	-5087
онат	-5088
▁еиҭеи	-5089
▁аламҭа	-5090
▁аҽазыҟаҵара	-5091
анаҭ	-5092
рама	-5093
әымӷ	-5094
▁рзым	-5095
▁Иҟоуп	-5096
▁лҽ	-5097
лари	-5098
гьери	-5099
уашәа	-5100
▁хьӡы	-5101
▁ун	-5102
ҳәои	-5103
▁ҩым	-5104
ҩыкгьы	-5105
▁Баҭыр	-5106
▁еиҳабы	-5107
▁дахьтәаз	-5108
▁аинститут	-5109
▁акыраамҭа	-5110
ԥшӡа	-5111
▁сца	-5112
▁еима	-5113
▁атема	-5114
▁иаақә	-5115
гәырӷьо	-5116
харҭақәа	-5117
▁лцәа	-5118
▁рнаҩс	-5119
▁схала	-5120
▁аҵлақәа	-5121
▁акырынтә	-5122
▁Св	-5123
ҵаауеит	-5124
ыгә	-5125
гәоуп	-5126
▁иргыланы	-5127
ԥси	-5128
▁арҵаҩцәа	-5129
▁Ҳаџьараҭ	-5130
ҭәаа	-5131
бареи	-5132
▁рыԥсадгьыл	-5133
зор	-5134
ԥыло	-5135
хника	-5136
▁мышкы	-5137
▁ҟанаҵоит	-5138
▁ҩын	-5139
ҳәҳәо	-5140
▁ачымазара	-5141
кылон	-5142
▁мариа	-5143
ҭом	-5144
▁рырҭ	-5145
зоураны	-5146
▁аҭахуп	-5147
гәышьеит	-5148
лен	-5149
▁гәыб	-5150
зыԥшын	-5151
џьма	-5152
ҵаҩы	-5153
ҳәыск	-5154
▁Аиҳабы	-5155
▁иалоуп	-5156
ҭбаа	-5157
ушьни	-5158
ҳәаргьы	-5159
▁иалахәын	-5160
▁рыҩнуҵҟа	-5161
▁Шьамтәыла	-5162
▁кы	-5163
▁аидара	-5164
сҭан	-5165
▁зыл	-5166
▁еилар	-5167
▁иааҭа	-5168
боуп	-5169
ԥсыч	-5170
араҿы	-5171
▁амаа	-5172
▁хәмар	-5173
хазы	-5174
лазшәа	-5175
▁шәгәы	-5176
вили	-5177
▁Агә	-5178
чыбжь	-5179
▁рыхь	-5180
қәҵара	-5181
Иаа	-5182
џьан	-5183
▁зма	-5184
хәаԥшра	-5185
ԥхьыӡ	-5186
▁зқәу	-5187
▁аҳабла	-5188
▁Христос	-5189
▁усбарҭа	-5190
▁зна	-5191
шәриа	-5192
▁адоуҳа	-5193
дыррақәа	-5194
▁асаркьа	-5195
оте	-5196
цесс	-5197
шәит	-5198
▁арҿиара	-5199
▁ирызкны	-5200
▁амаӡаныҟәгаҩ	-5201
▁апа	-5202
▁урҭгьы	-5203
▁Анатоли	-5204
);	-5205
рика	-5206
▁шаа	-5207
мырха	-5208
▁иҳара	-5209
▁рышҟа	-5210
▁Ман	-5211
▁хеи	-5212
▁Ԥыҭ	-5213
гахьан	-5214
хомызт	-5215
▁шиа	-5216
ларақәа	-5217
Ана	-5218
дым	-5219
гага	-5220
▁Ани	-5221
▁Нико	-5222
▁ззыр	-5223
▁иқәыз	-5224
гәалашәа	-5225
▁аҵакыра	-5226
▁Бар	-5227
▁Шам	-5228
цәажәан	-5229
▁ахаангьы	-5230
шьҭуа	-5231
▁назы	-5232
▁ҟаларын	-5233
▁мырҵыкәа	-5234
▁салагеит	-5235
рыр	-5236
ҿам	-5237
▁аҵыс	-5238
▁ԥыҭрак	-5239
▁иали	-5240
▁Аԥсын	-5241
▁зҭаху	-5242
▁Иаргьы	-5243
ӡами	-5244
▁ииашаны	-5245
▁Иреиҳаӡоу	-5246
дент	-5247
▁деила	-5248
▁ок	-5249
▁шәарҭ	-5250
▁ирацәоуп	-5251
▁аҳаирплан	-5252
▁реилазаара	-5253
▁уаб	-5254
лшоит	-5255
▁аҳра	-5256
▁ҳәаны	-5257
▁Асҭанда	-5258
▁Барцыц	-5259
▁ҵабырг	-5260
▁Ҳәарада	-5261
▁ааныжьны	-5262
ҩажәа	-5263
ӷониа	-5264
▁абжьаратә	-5265
инет	-5266
лаша	-5267
хәаҽ	-5268
олдаҭ	-5269
рикатә	-5270
хымызт	-5271
▁агьама	-5272
▁амаҵзура	-5273
▁алашьцара	-5274
▁ҷкәы	-5275
ҩхатәра	-5276
▁имариа	-5277
▁ихаҭагьы	-5278
▁усҟантәи	-5279
▁рыӡ	-5280
ҿлымҳа	-5281
▁Кәарҷ	-5282
чка	-5283
▁дахьгылаз	-5284
▁мчыбжьык	-5285
▁иажәеинраалақәа	-5286
ӡырҩы	-5287
▁рҭак	-5288
ҵаҩцәа	-5289
уби	-5290
ццак	-5291
ҭқәа	-5292
▁иау	-5293
заауеит	-5294
▁жәпакы	-5295
руг	-5296
наго	-5297
▁асцена	-5298
▁фа	-5299
акәы	-5300
ҽхак	-5301
ԥҳаи	-5302
▁аси	-5303
▁ахаҿы	-5304
▁ашәақәа	-5305
▁Аз	-5306
кьыл	-5307
▁лыбла	-5308
▁ҳаҟоуп	-5309
▁апартиа	-5310
▁реиқәыр	-5311
ӡон	-5312
▁ахьча	-5313
▁еиҭар	-5314
ҵәан	-5315
▁Наҳар	-5316
▁алада	-5317
▁ныҳәа	-5318
▁Ақалақь	-5319
ԥшу	-5320
ҩи	-5321
бзыӷ	-5322
былра	-5323
▁аҳәы	-5324
▁зуаз	-5325
▁бзиара	-5326
оуа	-5327
шьыҭ	-5328
▁итәы	-5329
зиеи	-5330
▁Дон	-5331
▁сзым	-5332
▁узыр	-5333
ӡатәи	-5334
▁иҽеи	-5335
▁аусзу	-5336
▁аџьар	-5337
▁рханы	-5338
▁ҳазла	-5339
▁иаанхоит	-5340
▁ахырхарҭа	-5341
цәыс	-5342
▁ихшыҩ	-5343
▁Гәдоуҭатәи	-5344
▁Зыхәба	-5345
▁Реидгыла	-5346
меҭ	-5347
ров	-5348
▁рҭаацәа	-5349
▁Ахәыҷқәа	-5350
▁амы	-5351
▁игеит	-5352
ографиа	-5353
▁Абиблиа	-5354
▁аҿҳәара	-5355
пеи	-5356
▁амла	-5357
▁исеи	-5358
▁дцоит	-5359
▁ирымоуп	-5360
хәаз	-5361
▁Ача	-5362
▁имаҵ	-5363
▁имҩаԥысуа	-5364
▁иуз	-5365
ениа	-5366
▁Таи	-5367
▁иаауеит	-5368
▁азны	-5369
хәҭақәа	-5370
шьҭыбжь	-5371
▁ҟаҵа	-5372
хәасҭа	-5373
ԥарақәа	-5374
мра	-5375
▁аполитика	-5376
▁университет	-5377
Иҟа	-5378
хаан	-5379
шәарц	-5380
ҽнаки	-5381
▁Павел	-5382
▁ахысра	-5383
▁31	-5384
дыру	-5385
хьам	-5386
ҵыхә	-5387
мамыз	-5388
▁иааҭ	-5389
ааҭк	-5390
жәга	-5391
ориа	-5392
▁мл	-5393
▁ҭар	-5394
▁акам	-5395
▁дышнеиуаз	-5396
▁Омар	-5397
▁аани	-5398
▁ирзы	-5399
▁бзиак	-5400
▁шьоук	-5401
▁имашьына	-5402
▁иԥсадгьыл	-5403
▁зу	-5404
хьааз	-5405
▁сҭахын	-5406
▁ҵәы	-5407
▁иаанхеит	-5408
▁ҳааи	-5409
▁аобла	-5410
▁иаауа	-5411
▁есааира	-5412
дыруамызт	-5413
ҟьон	-5414
▁сышә	-5415
дыруама	-5416
▁Ажәҩан	-5417
▁ашәшьы	-5418
халак	-5419
ӷьқәа	-5420
▁сҩызцәа	-5421
:3	-5422
Ир	-5423
цәи	-5424
ҿкаа	-5425
▁Амза	-5426
▁ршьа	-5427
▁Бадри	-5428
▁дааны	-5429
▁иануп	-5430
▁Сыр	-5431
▁афырхаҵа	-5432
▁иахьаҵанакуа	-5433
ылеит	-5434
омер	-5435
▁рны	-5436
ҳалал	-5437
▁ишыл	-5438
зарак	-5439
▁иԥхьа	-5440
▁2024	-5441
▁даҵа	-5442
▁Атәылахьчара	-5443
фи	-5444
кырц	-5445
ҵӷәы	-5446
▁иаау	-5447
▁сшәы	-5448
▁аҟазара	-5449
▁ады	-5450
цәара	-5451
▁Цәы	-5452
рыцара	-5453
▁шьҭыхны	-5454
▁араионқәа	-5455
сгьы	-5456
шыла	-5457
лареи	-5458
▁сцәа	-5459
▁ҳгәа	-5460
гои	-5461
▁ироу	-5462
лаанӡа	-5463
лбыҽха	-5464
▁гәырҩа	-5465
▁даҽакы	-5466
▁ирацәаны	-5467
▁ҭи	-5468
▁Иус	-5469
дагьы	-5470
шьуан	-5471
талион	-5472
ҭынчра	-5473
▁ахәшьара	-5474
▁аҵарауаҩ	-5475
емец	-5476
заргь	-5477
▁агаҿа	-5478
▁аиура	-5479
▁ҳаҩны	-5480
ԥқәа	-5481
▁алаҵа	-5482
гыз	-5483
онт	-5484
лбаа	-5485
мана	-5486
▁арҵаҩы	-5487
ҵакны	-5488
▁шәхы	-5489
џьабаа	-5490
▁арҵаҩ	-5491
▁иалан	-5492
▁ыл	-5493
▁198	-5494
▁Ару	-5495
рыцҳа	-5496
нагеит	-5497
▁дасу	-5498
▁дцон	-5499
▁мчра	-5500
▁убриаҟара	-5501
▁Ажә	-5502
▁ацы	-5503
▁Аԥсҳа	-5504
ууа	-5505
хшьа	-5506
▁иԥы	-5507
▁уоуп	-5508
▁рзыҳәан	-5509
қс	-5510
гартә	-5511
▁изаа	-5512
▁ахәшә	-5513
гәырӷьоит	-5514
▁аԥхьатәи	-5515
▁амедицинатә	-5516
▁уҽ	-5517
ӷьны	-5518
▁аҩызцәа	-5519
ҩым	-5520
хәан	-5521
хозар	-5522
▁Абза	-5523
▁абза	-5524
▁изых	-5525
▁иҽыр	-5526
▁хархәа	-5527
ҵау	-5528
▁зҭа	-5529
▁нықә	-5530
▁аханатә	-5531
▁иеиҳәеит	-5532
▁изи	-5533
▁руаӡәк	-5534
▁ипоезиа	-5535
▁Аза	-5536
▁хатә	-5537
▁иахьӡ	-5538
▁иажәеинраала	-5539
▁шыс	-5540
кәытә	-5541
▁аԥсцәа	-5542
во	-5543
ҿаҳәа	-5544
▁сааит	-5545
▁ахыҵра	-5546
▁аспортсмен	-5547
▁абла	-5548
▁дацә	-5549
▁Аҟәаҟа	-5550
ӡац	-5551
▁уба	-5552
▁ахатә	-5553
▁иахьыр	-5554
хиоуп	-5555
▁Џьон	-5556
▁аҵәца	-5557
▁игәра	-5558
гарақәа	-5559
ԥхыӡ	-5560
▁Фран	-5561
ҭбааны	-5562
▁ҳаԥсы	-5563
▁аопера	-5564
▁зе	-5565
шәоу	-5566
▁197	-5567
▁Леуар	-5568
зегьтәи	-5569
уб	-5570
цәаа	-5571
▁Амца	-5572
ҵҟьеит	-5573
▁Никәа	-5574
▁агәырҩа	-5575
▁ҟәша	-5576
ҳәаауа	-5577
▁сҩыза	-5578
▁гәыкала	-5579
▁рыҩныҵҟа	-5580
▁иабзоураны	-5581
▁ахәшәтәырҭа	-5582
тол	-5583
▁анапы	-5584
▁инеит	-5585
илос	-5586
ҿқәа	-5587
хьгьы	-5588
хәыҷыз	-5589
▁аицла	-5590
▁Ахә	-5591
иужет	-5592
нда	-5593
тын	-5594
аԥны	-5595
▁дгәа	-5596
дыруазар	-5597
резидент	-5598
▁уадаҩуп	-5599
▁Аҭ	-5600
риго	-5601
уман	-5602
ҭыха	-5603
▁ааныр	-5604
▁иахыр	-5605
бал	-5606
ҩаԥыр	-5607
▁афак	-5608
▁инал	-5609
ҵазкуа	-5610
▁Ақыҭа	-5611
▁иахыс	-5612
▁аргама	-5613
▁хықәкыс	-5614
▁Ил	-5615
тизан	-5616
шьҭых	-5617
▁иҟаҳ	-5618
▁инадыр	-5619
9.	-5620
▁де	-5621
▁уԥсы	-5622
умҭақәа	-5623
▁лыҷкәын	-5624
▁ахаҭарнакцәа	-5625
мил	-5626
▁ҵә	-5627
▁сла	-5628
▁ибоит	-5629
▁иқәгылаз	-5630
бацызт	-5631
қәиҵеит	-5632
▁рышьҭа	-5633
ҟаҵаҩ	-5634
▁ҳи	-5635
▁ири	-5636
панча	-5637
▁Андреи	-5638
▁амилициа	-5639
ҳаражәҳәаҩ	-5640
шареи	-5641
▁диас	-5642
▁рхада	-5643
▁ирҳәоз	-5644
▁иашьцәа	-5645
ео	-5646
даа	-5647
кал	-5648
хша	-5649
етер	-5650
хьзеи	-5651
ҭыжьы	-5652
ҭынра	-5653
▁Кәыдры	-5654
▁идыруеит	-5655
▁илыр	-5656
▁рхар	-5657
ларгьы	-5658
▁ихаҿы	-5659
анагарала	-5660
анаҵ	-5661
ԥсан	-5662
сиава	-5663
▁ачем	-5664
▁деиҭа	-5665
▁Есиава	-5666
▁ақәҵара	-5667
арас	-5668
▁Аҩа	-5669
орден	-5670
хартә	-5671
▁рхатәы	-5672
дәықәлеит	-5673
анн	-5674
ымҩа	-5675
фымца	-5676
▁дшыр	-5677
▁ҳаԥс	-5678
▁Хьымца	-5679
▁абаҳча	-5680
хьчаразы	-5681
ие	-5682
зықә	-5683
крат	-5684
дон	-5685
шьҭын	-5686
▁хьаа	-5687
арацәа	-5688
илософ	-5689
▁еилакы	-5690
▁инаҵшьны	-5691
ныз	-5692
гаша	-5693
ҵаауан	-5694
▁уахынла	-5695
▁ауаатәыҩса	-5696
барда	-5697
ԥхьон	-5698
халеит	-5699
▁ламыс	-5700
▁амаӡам	-5701
▁изыҳәан	-5702
▁ԥҳәызба	-5703
▁еибы	-5704
ыгшәыг	-5705
▁еиҿыр	-5706
▁аԥхьара	-5707
ҟәи	-5708
▁ацын	-5709
▁ихьан	-5710
▁Сынтәа	-5711
▁ҳәынҭқар	-5712
рина	-5713
▁Лад	-5714
▁ази	-5715
▁аҵар	-5716
▁Аурыс	-5717
▁дааины	-5718
▁абиуџьет	-5719
▁ансамбль	-5720
▁џ	-5721
▁сҽ	-5722
ҟаны	-5723
ҟьар	-5724
Зегьы	-5725
▁иацы	-5726
▁измоу	-5727
▁аобласт	-5728
▁амардуан	-5729
▁ақыҭанхамҩа	-5730
рҭам	-5731
▁иҽи	-5732
▁атер	-5733
▁ихьаа	-5734
▁сылаԥш	-5735
▁ауаажәларра	-5736
Ал	-5737
еҩ	-5738
▁Ҩы	-5739
опуа	-5740
тәгьы	-5741
мҩаԥгатәқәа	-5742
▁ААР	-5743
▁Смыр	-5744
▁иаби	-5745
▁хәба	-5746
▁ирыман	-5747
▁ашәҭқәа	-5748
▁даналага	-5749
жис	-5750
ӷыз	-5751
▁нха	-5752
▁амҵан	-5753
хынҳәра	-5754
▁анырра	-5755
▁иазкыз	-5756
еиҭа	-5757
▁Пиот	-5758
▁дахы	-5759
ҭахоит	-5760
▁ҳамам	-5761
хынҳәыр	-5762
▁был	-5763
гӡоит	-5764
иҵеит	-5765
▁Иахь	-5766
▁иԥыр	-5767
харазы	-5768
▁аҩыџьагьы	-5769
ктәи	-5770
▁нала	-5771
▁рацәан	-5772
▁амашьынақәа	-5773
ҳуа	-5774
жәра	-5775
▁дышԥа	-5776
▁аҵаҩцәа	-5777
қьҳәа	-5778
▁ахала	-5779
▁ҩажәа	-5780
▁Џьапуа	-5781
▁Иахьатәи	-5782
▁Ҭам	-5783
▁ԥаса	-5784
▁ахәра	-5785
▁иашҭа	-5786
▁азааигәара	-5787
мыкьа	-5788
цәаны	-5789
шәшәа	-5790
▁рхыр	-5791
▁Ҷлоу	-5792
гахоит	-5793
ҭатәуп	-5794
▁иархәаны	-5795
олков	-5796
▁икны	-5797
▁ҷкәын	-5798
▁Аҵыхәтәантәи	-5799
рдә	-5800
гыларҭа	-5801
▁ахьыҟаз	-5802
▁сма	-5803
шьҭам	-5804
цәыԥха	-5805
▁избо	-5806
▁ҳзыр	-5807
▁зынӡак	-5808
Ла	-5809
▁Ӷ	-5810
▁ашьац	-5811
▁лҳәоит	-5812
рик	-5813
зааз	-5814
ҵәах	-5815
хианы	-5816
▁Егьи	-5817
▁иааҳ	-5818
елла	-5819
насыԥ	-5820
нызқь	-5821
ччоит	-5822
▁иҩеи	-5823
▁сызла	-5824
▁даннеи	-5825
▁иҟалап	-5826
▁ист	-5827
▁Адамыр	-5828
▁иааганы	-5829
хьтә	-5830
лартә	-5831
▁инамаданы	-5832
▁Ки	-5833
каар	-5834
цхра	-5835
▁Ишә	-5836
▁аары	-5837
▁ихара	-5838
▁рашәа	-5839
дыл	-5840
сқьа	-5841
оушәа	-5842
▁аԥха	-5843
▁еибыр	-5844
▁ииҳәо	-5845
Аибашьра	-5846
▁Краснодар	-5847
▁иаҵанакуеит	-5848
ыхә	-5849
▁ахи	-5850
ҵарба	-5851
ҵозар	-5852
ԥҵара	-5853
▁роуит	-5854
▁Витали	-5855
▁Аны	-5856
ҳәаҩцәа	-5857
▁ахаҵара	-5858
▁еиҳараӡак	-5859
муни	-5860
жәо	-5861
жәит	-5862
баҩха	-5863
▁иаанагоз	-5864
▁бзиан	-5865
▁иԥшьоу	-5866
▁слымҳа	-5867
ҭынха	-5868
▁уала	-5869
▁иганы	-5870
шьҭаланы	-5871
▁усурақәа	-5872
▁аинтервиу	-5873
гәи	-5874
▁зауз	-5875
▁изба	-5876
▁ҟалаӡом	-5877
қьи	-5878
Абар	-5879
еҵәа	-5880
шьамхы	-5881
ԥныҳәа	-5882
▁рыбжь	-5883
каарақәа	-5884
пыҵ	-5885
▁ҳшы	-5886
ццакны	-5887
▁дыҟаӡам	-5888
▁иаи	-5889
▁лҽа	-5890
▁нҵәа	-5891
▁Ешыра	-5892
▁атекст	-5893
▁шьақәыр	-5894
Саб	-5895
▁афин	-5896
омандир	-5897
ҵаша	-5898
▁Пап	-5899
▁ҳзеи	-5900
▁иаҭахузеи	-5901
аруа	-5902
▁бжьа	-5903
▁амузеи	-5904
▁аекономикатә	-5905
жьуп	-5906
ҳарц	-5907
▁теле	-5908
ӡны	-5909
▁Ӡы	-5910
анеи	-5911
цәырҵ	-5912
▁закәу	-5913
анаа	-5914
▁Ате	-5915
зыҟоу	-5916
хыҵит	-5917
▁умбои	-5918
▁Нарҭаа	-5919
▁Коӷониа	-5920
сҭ	-5921
лов	-5922
цала	-5923
▁диз	-5924
ӡақәа	-5925
▁акәац	-5926
▁хьанҭа	-5927
▁аԥсадгьыл	-5928
ӷара	-5929
қьара	-5930
▁уахыки	-5931
▁Лашәриа	-5932
умҭа	-5933
▁ҳҽа	-5934
алата	-5935
▁аплан	-5936
▁шьапыла	-5937
дна	-5938
▁Аст	-5939
▁бгәы	-5940
▁гәык	-5941
▁Адырҩаҽны	-5942
▁абрахь	-5943
▁еилкааны	-5944
баара	-5945
▁згоит	-5946
гылареи	-5947
▁Ажәытә	-5948
▁лҿынал	-5949
▁Москватәи	-5950
▁апрограмма	-5951
Ад	-5952
лҵшьҭ	-5953
▁амыр	-5954
ҟынтәи	-5955
▁иааиз	-5956
шьҭуеит	-5957
ҳәҳәеит	-5958
▁ашәарҭа	-5959
▁иҟарҵаз	-5960
мыш	-5961
еиза	-5962
қәдыр	-5963
▁аҭӡамц	-5964
▁ԥшьаала	-5965
▁рк	-5966
бжак	-5967
ԥсык	-5968
Шәара	-5969
▁зкыз	-5970
▁саан	-5971
▁ҟалон	-5972
сс	-5973
▁ман	-5974
ҟамла	-5975
▁геит	-5976
▁идәы	-5977
▁ихар	-5978
▁излар	-5979
▁аашьҭыхны	-5980
▁Лиу	-5981
нақәа	-5982
▁угәа	-5983
▁еиҳау	-5984
▁иҷыдоу	-5985
▁комиссиа	-5986
▁уы	-5987
цәыз	-5988
▁злаз	-5989
ҳараӡак	-5990
▁ишьҭаз	-5991
▁Гагратәи	-5992
▁0	-5993
жур	-5994
рҭоу	-5995
цәақәа	-5996
▁аспектакль	-5997
Зегь	-5998
▁Нар	-5999
ԥырха	-6000
ультет	-6001
▁Ашәба	-6002
▁ԥҳәыск	-6003
луа	-6004
цаа	-6005
ҵап	-6006
мини	-6007
сыӷь	-6008
ԥраа	-6009
▁Афон	-6010
каауаз	-6011
пионат	-6012
хазгьы	-6013
хьазар	-6014
▁драма	-6015
▁рыгәҭа	-6016
▁шәҟәқәа	-6017
гьежьит	-6018
▁ақырҭқәа	-6019
итературеи	-6020
▁зҵа	-6021
зыԥшу	-6022
▁ушьҭа	-6023
хәыцуеит	-6024
▁аӡбарҭа	-6025
олиа	-6026
Ауаҩы	-6027
нахит	-6028
ӷәӷәоуп	-6029
▁аарԥшра	-6030
▁Аладатәи	-6031
әаӡәа	-6032
▁Кама	-6033
бароуп	-6034
▁аԥҵара	-6035
▁ҵаҵӷәы	-6036
џьаԥ	-6037
галаз	-6038
ҟазар	-6039
▁ачаи	-6040
▁изын	-6041
▁акрит	-6042
▁зылшо	-6043
бу	-6044
▁Ҩа	-6045
▁Бган	-6046
наҟ	-6047
қәла	-6048
▁ҳау	-6049
▁СССР	-6050
▁ҭыԥк	-6051
▁даала	-6052
▁ишәҟәы	-6053
хынҳәуеит	-6054
▁ашколқәа	-6055
▁ҳаԥсадгьыл	-6056
▁жәы	-6057
ԥсыла	-6058
▁ашьхара	-6059
Ала	-6060
ԥшьы	-6061
ццакуа	-6062
ԥшымра	-6063
▁ианын	-6064
▁фырха	-6065
▁Америка	-6066
жәым	-6067
ырқәа	-6068
▁Зура	-6069
▁Ашкол	-6070
▁ахәда	-6071
▁ашара	-6072
олитикатә	-6073
▁ирыхҟьаны	-6074
ҷыҷ	-6075
неитә	-6076
рҭоит	-6077
▁аимак	-6078
▁аԥыжәара	-6079
▁Им	-6080
▁саз	-6081
▁Абраҟа	-6082
▁аҭакԥхықәра	-6083
заар	-6084
▁Ҳараз	-6085
▁лыхьӡ	-6086
▁рылаԥш	-6087
▁Иҳақәиҭу	-6088
ԥымза	-6089
▁уаан	-6090
▁апроф	-6091
ӷьарахь	-6092
▁агәара	-6093
▁аниҳәа	-6094
▁аӷацәа	-6095
хе	-6096
▁аныха	-6097
дим	-6098
▁амо	-6099
▁Ленин	-6100
▁ҟамла	-6101
ныкымкәа	-6102
▁реиҳәеит	-6103
ӷырӡқәа	-6104
гәалашәо	-6105
сыл	-6106
улак	-6107
▁хаҳә	-6108
▁Ҷанба	-6109
мыжькәа	-6110
ҳәахьоу	-6111
▁Џьопуа	-6112
кәыхшоуп	-6113
▁закәызеи	-6114
▁амҵәыжәҩа	-6115
шақә	-6116
▁Сариа	-6117
▁днала	-6118
ӷәӷәарҭа	-6119
▁абиԥара	-6120
▁аҵабырг	-6121
Лара	-6122
▁ибы	-6123
▁ҩеи	-6124
▁днал	-6125
▁рбызшәа	-6126
тина	-6127
▁Сте	-6128
▁наир	-6129
дгылан	-6130
▁ахәыцра	-6131
госп	-6132
бганы	-6133
ҵахьан	-6134
▁Асида	-6135
▁аҭауад	-6136
цәажәашьа	-6137
▁аԥхьаҩцәа	-6138
мхы	-6139
▁Уаа	-6140
гәқәа	-6141
▁азал	-6142
▁ишаҳ	-6143
▁Зынӡа	-6144
▁ирхыр	-6145
▁ҟанаҵеит	-6146
▁инапынҵақәа	-6147
гаа	-6148
сҳәо	-6149
хәон	-6150
▁сыгә	-6151
хьынҳа	-6152
▁уаанӡатәи	-6153
ԥыцтә	-6154
▁Пиотр	-6155
▁дыҩна	-6156
▁ихатә	-6157
▁анеира	-6158
▁ҳаԥсуа	-6159
▁абаҩхатәра	-6160
▁рганахьала	-6161
қәыл	-6162
▁Асас	-6163
зеиԥшу	-6164
▁аанда	-6165
▁Кьагәа	-6166
накылеит	-6167
оди	-6168
▁ни	-6169
уагьы	-6170
▁саби	-6171
шәынтәа	-6172
сан	-6173
ааиз	-6174
феит	-6175
▁Ади	-6176
▁алақәа	-6177
▁аҭырқә	-6178
▁ЕА	-6179
ԥсыр	-6180
▁шьыжь	-6181
▁ҟазҵаз	-6182
▁автобус	-6183
ҭрыс	-6184
▁дах	-6185
ригори	-6186
▁адырраҭара	-6187
▁(19	-6188
▁Бадра	-6189
▁центр	-6190
гылашьа	-6191
▁Амашьына	-6192
▁аделегациа	-6193
ныш	-6194
ноуп	-6195
▁Мам	-6196
▁даҿуп	-6197
▁ҳаԥхьа	-6198
▁аиҳабацәа	-6199
џьым	-6200
▁иҟәы	-6201
▁иаани	-6202
цәажәар	-6203
қәымшәо	-6204
уааи	-6205
ԥхьы	-6206
▁Хар	-6207
▁хра	-6208
ератор	-6209
лектив	-6210
▁аӷәра	-6211
чи	-6212
тҟәа	-6213
цәын	-6214
▁194	-6215
▁акри	-6216
ԥсахит	-6217
шәу	-6218
италь	-6219
ԥааны	-6220
▁ишьҭахь	-6221
▁зынӡагьы	-6222
▁рынагӡара	-6223
▁аԥсҭа	-6224
▁цәгьала	-6225
▁ашьҭыбжь	-6226
▁Ии	-6227
таӷь	-6228
абырг	-6229
бжьоу	-6230
▁ашьапылампыл	-6231
▁Риҵа	-6232
▁иазым	-6233
госпиталь	-6234
ерқь	-6235
▁еив	-6236
бомызт	-6237
▁иҭахуп	-6238
▁адокумент	-6239
ут	-6240
Аба	-6241
аҟа	-6242
▁сҩа	-6243
ххеит	-6244
▁Арда	-6245
▁Мықә	-6246
▁ашәҟә	-6247
дәылҵны	-6248
ранспорт	-6249
▁Гәымсҭа	-6250
▁иааиуаз	-6251
▁нахьхьи	-6252
▁аныҟәара	-6253
орти	-6254
џьеи	-6255
анҭар	-6256
хеилак	-6257
▁хадас	-6258
зынаԥшуа	-6259
цәыргақәҵа	-6260
▁инарҭбааны	-6261
ҭәы	-6262
▁Қәа	-6263
башьа	-6264
▁аштаб	-6265
мышьҭахь	-6266
▁аныл	-6267
▁аԥхыӡ	-6268
▁бзиала	-6269
▁ииҳәоз	-6270
▁ақыҭаҿы	-6271
▁дши	-6272
▁абга	-6273
хәыҷла	-6274
▁мшын	-6275
▁Бериа	-6276
▁Самсон	-6277
▁дыԥсит	-6278
▁иӷәӷәа	-6279
▁изышьҭаз	-6280
лиг	-6281
Амра	-6282
▁наз	-6283
▁иҳаи	-6284
▁Зураб	-6285
▁залшом	-6286
▁агәырӷьара	-6287
ҿак	-6288
уажә	-6289
▁аҿгьы	-6290
фымцамч	-6291
етербург	-6292
зба	-6293
қәыԥсыч	-6294
▁урҭқәа	-6295
дҳәаланы	-6296
▁Адлеиба	-6297
▁система	-6298
.,	-6299
▁хыс	-6300
▁1992	-6301
▁рҭах	-6302
▁сҳәа	-6303
▁аартра	-6304
▁иаанар	-6305
▁ҳамҭас	-6306
▁Николаи	-6307
▁гәыԥҩык	-6308
▁араионтә	-6309
▁рҿынархеит	-6310
кым	-6311
▁рҽы	-6312
ҭыҵны	-6313
▁Џьын	-6314
▁хәҭа	-6315
▁аԥсшьа	-6316
▁аусеицура	-6317
акан	-6318
аԥша	-6319
▁2021	-6320
▁Игор	-6321
▁аҵаа	-6322
▁аҟаза	-6323
гак	-6324
ота	-6325
пло	-6326
сман	-6327
доуҳатә	-6328
дҳәалоу	-6329
▁ҳазшаз	-6330
▁ахақәиҭ	-6331
рҭадаратә	-6332
▁млн	-6333
▁аанар	-6334
сктәи	-6335
галара	-6336
ералтә	-6337
▁аҳәын	-6338
▁еидыз	-6339
▁инана	-6340
▁рҳәаа	-6341
▁сыҩны	-6342
ааимбар	-6343
▁асалам	-6344
ҿсахьақәа	-6345
▁ул	-6346
▁Саид	-6347
▁аҵиаа	-6348
▁астатиа	-6349
кәызаалак	-6350
жәлан	-6351
▁сакә	-6352
▁Абзагә	-6353
▁рыхқәа	-6354
▁Аԥсуара	-6355
▁есышықәса	-6356
еф	-6357
▁Кан	-6358
▁ахш	-6359
▁рҭы	-6360
▁арег	-6361
▁иҟалар	-6362
▁ҭҵаара	-6363
▁иманшәа	-6364
ӷы	-6365
ӷьаз	-6366
Абарҭ	-6367
▁Ҭарба	-6368
▁аҵыхәала	-6369
▁аазырԥшуа	-6370
▁ашәарҭара	-6371
қыҭан	-6372
▁иқәу	-6373
00-	-6374
▁ух	-6375
гааит	-6376
▁улаԥш	-6377
рыцаҩ	-6378
▁Лагә	-6379
гәаҟуа	-6380
▁дыҟаз	-6381
цәырҵит	-6382
▁аџьықәреи	-6383
▁рҭагылазаашьа	-6384
аҿ	-6385
имв	-6386
хьчо	-6387
дыраа	-6388
▁усзу	-6389
барақәа	-6390
шевикцәа	-6391
дқәа	-6392
ӡыхь	-6393
▁шәаа	-6394
аауеит	-6395
галоит	-6396
▁Давид	-6397
▁инагӡаны	-6398
▁издыруада	-6399
▁Исы	-6400
хәмаруа	-6401
▁арыжәтә	-6402
▁ақалақьтә	-6403
▁Ахь	-6404
гәашә	-6405
▁Џьара	-6406
гылазар	-6407
жиссиор	-6408
Аԥ	-6409
▁дса	-6410
ҭыхҩы	-6411
▁аексп	-6412
▁афестиваль	-6413
▁уажәраанӡагьы	-6414
кка	-6415
раҿ	-6416
▁Қь	-6417
▁уал	-6418
▁хкы	-6419
лԥазы	-6420
▁аҭел	-6421
▁ӡӷаб	-6422
▁ҳаиқә	-6423
Амшынеиқәа	-6424
▁акультуратә	-6425
ҵәуа	-6426
кәбар	-6427
▁Акәа	-6428
▁агра	-6429
▁аԥхӡы	-6430
▁дшәаны	-6431
▁ишьҭахьҟа	-6432
хкы	-6433
▁ҽыр	-6434
Аамҭа	-6435
▁Иаҳа	-6436
▁удыр	-6437
▁хыла	-6438
▁иҿыцу	-6439
▁Ашьыжь	-6440
▁сҭахым	-6441
цәажәарц	-6442
▁ахылаԥш	-6443
▁ажурналистцәа	-6444
асан	-6445
бома	-6446
▁иныр	-6447
▁шәзы	-6448
▁ԥсра	-6449
лагала	-6450
▁иахьыҟоу	-6451
▁ашьҭахьтәи	-6452
▁аӡиа	-6453
дгылаз	-6454
кәшаны	-6455
▁Аџьба	-6456
▁акциа	-6457
▁ҟазҵо	-6458
II	-6459
енг	-6460
▁Убра	-6461
▁Уигьы	-6462
▁аӷьыч	-6463
▁иџьыба	-6464
олковник	-6465
▁ааигәара	-6466
▁аҩымҭақәа	-6467
изм	-6468
осу	-6469
▁Иар	-6470
баҟаз	-6471
дареи	-6472
ирплан	-6473
▁Лыхны	-6474
▁ақалақьқәа	-6475
ҭап	-6476
ызар	-6477
▁Лав	-6478
▁Агәра	-6479
▁шәышықәса	-6480
ԥоз	-6481
▁дам	-6482
дуцәа	-6483
гәамҭа	-6484
▁алагьы	-6485
▁аҳазал	-6486
▁рыцҳара	-6487
▁алахәыла	-6488
анр	-6489
гиа	-6490
шьца	-6491
▁кьы	-6492
▁сыҽ	-6493
аалак	-6494
▁астудентцәа	-6495
сара	-6496
хшаз	-6497
▁Ауа	-6498
▁руеит	-6499
цәажәаз	-6500
ҳәҳәаны	-6501
▁акандидат	-6502
Сан	-6503
▁рма	-6504
ҵаауа	-6505
▁иҩызцәеи	-6506
Ды	-6507
ныҟәо	-6508
анахеит	-6509
▁дҭахеит	-6510
нат	-6511
ыша	-6512
мшәо	-6513
хьӡа	-6514
▁быр	-6515
▁ума	-6516
бинет	-6517
▁итәа	-6518
▁Асмаҭ	-6519
▁иқыҭа	-6520
▁рыбжьа	-6521
▁иреиҳау	-6522
▁инациҵеит	-6523
▁ихаҿсахьа	-6524
наҵы	-6525
ҿацә	-6526
гьыла	-6527
▁афонд	-6528
▁аҩнқәа	-6529
▁ирҳәоит	-6530
роп	-6531
цышә	-6532
▁Ҿыц	-6533
▁Џьан	-6534
▁Аком	-6535
▁аиҿа	-6536
тәанча	-6537
хынҳәы	-6538
▁Рашьыҭ	-6539
▁Хьыбла	-6540
▁Пицунда	-6541
▁аҳкәажә	-6542
▁аӡәаӡәа	-6543
▁ҟалаанӡа	-6544
ԥоу	-6545
▁ив	-6546
ҳҵеит	-6547
▁Есма	-6548
▁Ната	-6549
▁имари	-6550
Аф	-6551
мҵан	-6552
шҭит	-6553
ӡқәа	-6554
▁ҳнар	-6555
▁абӷьы	-6556
▁аԥшӡара	-6557
▁ииҭахыз	-6558
қтор	-6559
ԥхаз	-6560
▁анҭ	-6561
▁быс	-6562
хьаны	-6563
▁ааим	-6564
ерсона	-6565
▁шаанӡа	-6566
▁ҳаԥхьаҟа	-6567
▁сыб	-6568
жәжәа	-6569
кызны	-6570
уы	-6571
туа	-6572
цха	-6573
тәит	-6574
▁згеит	-6575
гылақәа	-6576
▁амаҵурҭа	-6577
▁Аҽ	-6578
гәышь	-6579
▁иҵар	-6580
хараны	-6581
▁иусура	-6582
хԥа	-6583
ӷоу	-6584
▁Арс	-6585
▁рзеи	-6586
▁акәша	-6587
▁ишәым	-6588
▁Мза	-6589
ҭыҵит	-6590
▁ҩажәи	-6591
радициа	-6592
▁Асахьа	-6593
▁аанкыла	-6594
дыргылеит	-6595
ҩар	-6596
жәуа	-6597
ҟәеи	-6598
▁уаҳ	-6599
▁аҽқәа	-6600
▁аԥхьаҟа	-6601
езон	-6602
цәкь	-6603
шәуп	-6604
зареи	-6605
ыргьы	-6606
жәҩахыр	-6607
▁Ҳаргьы	-6608
▁хадақәа	-6609
Лы	-6610
ҟәыл	-6611
ҩажәи	-6612
лараны	-6613
▁деиқә	-6614
▁иагәы	-6615
▁иабаҟоу	-6616
▁макьаназы	-6617
▁аофициалтә	-6618
туеит	-6619
▁аалыр	-6620
▁хадара	-6621
▁ԥыҭҩык	-6622
▁аԥснытәи	-6623
▁аанкыланы	-6624
дуи	-6625
ҿеи	-6626
▁шу	-6627
ицар	-6628
струк	-6629
кәшеит	-6630
▁дзықә	-6631
▁амҳаџьыр	-6632
▁ааз	-6633
дароу	-6634
теллиг	-6635
▁хынтә	-6636
▁Аҽы	-6637
▁Олег	-6638
лрыԥшь	-6639
▁амахә	-6640
▁шәааи	-6641
▁Аҽа	-6642
▁Схы	-6643
▁ауан	-6644
▁иҭам	-6645
▁убыс	-6646
▁қыҭа	-6647
пломат	-6648
цәымыӷ	-6649
ӡаргьы	-6650
▁Ашықәс	-6651
▁русқәа	-6652
баҩхатәра	-6653
▁апроблема	-6654
дыд	-6655
ҩсыз	-6656
▁ҭыз	-6657
уазма	-6658
▁Мура	-6659
▁сгәала	-6660
▁Кәарҷиа	-6661
▁арԥарцәа	-6662
5-	-6663
лҿы	-6664
зҵаз	-6665
ҭҳәа	-6666
▁аиба	-6667
▁усуп	-6668
кылоуп	-6669
▁аконцерт	-6670
Иаҳ	-6671
гры	-6672
ҵәу	-6673
цәыри	-6674
▁Инеи	-6675
тәарак	-6676
▁аԥсуааи	-6677
ҳәынҭқарра	-6678
▁аԥҟарақәа	-6679
кәаны	-6680
ларҭа	-6681
▁анаҳ	-6682
▁иаҟара	-6683
ҳәаӡакәа	-6684
▁абжьара	-6685
▁инадыркны	-6686
▁аҩныҵҟатәи	-6687
▁T	-6688
▁ини	-6689
терес	-6690
▁арти	-6691
▁лықә	-6692
▁рана	-6693
▁штаб	-6694
блиоте	-6695
ӷәӷәоу	-6696
▁Уажәа	-6697
▁дагьа	-6698
▁дырны	-6699
▁дгыланы	-6700
▁Иб	-6701
дала	-6702
ҿаба	-6703
хазар	-6704
▁аара	-6705
▁апроз	-6706
лыл	-6707
рем	-6708
саа	-6709
▁апап	-6710
▁дкыл	-6711
▁данын	-6712
▁хаҵак	-6713
▁Герман	-6714
▁дыҟазар	-6715
▁шыҟалаз	-6716
хтны	-6717
▁ҳқыҭа	-6718
▁наунагӡа	-6719
▁(«	-6720
лҵуа	-6721
абеит	-6722
ҟьаӡа	-6723
ҟәаҟәа	-6724
луб	-6725
рыи	-6726
ециа	-6727
ԥсны	-6728
▁Кор	-6729
ԥхьаз	-6730
▁сеид	-6731
▁фонд	-6732
ҳәашьа	-6733
▁рҩызцәа	-6734
▁иажәабжь	-6735
фҩы	-6736
ьаа	-6737
гало	-6738
дыра	-6739
хьуа	-6740
шәап	-6741
▁Сеи	-6742
скьын	-6743
▁ибар	-6744
▁иҭеи	-6745
▁рааи	-6746
хәуеит	-6747
▁агәаҟра	-6748
шьи	-6749
ԥшызар	-6750
▁ҭабуп	-6751
▁Иазгәа	-6752
онна	-6753
анциа	-6754
ԥхьоз	-6755
ӡацызт	-6756
▁ирыбжьа	-6757
▁атәылахьчара	-6758
аиз	-6759
гӡон	-6760
ӡшәа	-6761
ҭахума	-6762
▁аҳаԥы	-6763
шәынҭра	-6764
▁ҟазара	-6765
анал	-6766
▁Ишы	-6767
▁ҭак	-6768
▁ҳҭахуп	-6769
▁усбарҭақәа	-6770
-1	-6771
гәал	-6772
ҭанеи	-6773
▁гәыр	-6774
▁зымч	-6775
ҳәароуп	-6776
но	-6777
шла	-6778
кылар	-6779
орган	-6780
хьаԥш	-6781
▁Баҭа	-6782
▁иацу	-6783
▁иԥха	-6784
▁унапы	-6785
▁ҳәоуп	-6786
министра	-6787
накылоит	-6788
▁здыруеит	-6789
▁атуристцәа	-6790
▁ӡа	-6791
Бара	-6792
ҟаӡам	-6793
гаргьы	-6794
▁иҟало	-6795
▁Аԥшәма	-6796
▁иаауаз	-6797
▁аҟәардә	-6798
▁уиаҟара	-6799
▁аҳақьымцәа	-6800
▁Ги	-6801
баан	-6802
цент	-6803
ымра	-6804
▁Але	-6805
▁Хыхь	-6806
▁абни	-6807
▁аҽар	-6808
▁иаму	-6809
дакциа	-6810
▁аполи	-6811
▁аԥсуара	-6812
▁аҷ	-6813
бозар	-6814
▁имгакәа	-6815
▁ауниверситет	-6816
охә	-6817
уцәа	-6818
хаӡом	-6819
▁саҳа	-6820
нагалаз	-6821
▁изныкымкәа	-6822
мах	-6823
▁ҳш	-6824
мара	-6825
латәи	-6826
▁Хәым	-6827
уардын	-6828
▁аладыр	-6829
▁ихатәы	-6830
▁акәашара	-6831
хәаԥшуазар	-6832
зна	-6833
тәо	-6834
▁ига	-6835
гылом	-6836
сҵоит	-6837
шықәс	-6838
▁метра	-6839
▁аԥсаатә	-6840
▁иахьазы	-6841
шаҳаҭхеит	-6842
▁Ԥс	-6843
▁Наҟ	-6844
барала	-6845
▁Шамба	-6846
▁ашьаус	-6847
▁днаскь	-6848
▁дрыцҳа	-6849
▁еиҿкаара	-6850
▁реизыҟазаашьа	-6851
феи	-6852
Аҩны	-6853
▁Лев	-6854
▁сыхьӡ	-6855
▁Издыруада	-6856
▁ашьақәыргылара	-6857
ҷкәы	-6858
▁Уас	-6859
▁кол	-6860
▁Мариа	-6861
▁ҳарак	-6862
▁анемец	-6863
▁аихамҩа	-6864
тка	-6865
▁Ҭы	-6866
деиа	-6867
лҵны	-6868
▁аир	-6869
▁иур	-6870
хыҵны	-6871
▁Уаха	-6872
хылҵыз	-6873
▁атанк	-6874
▁итәан	-6875
▁минуҭ	-6876
қәымшәа	-6877
▁Мушьни	-6878
▁аусҳәарҭа	-6879
▁сахьаркыратә	-6880
▁́	-6881
ӷьуп	-6882
ҵысит	-6883
ӡамҩа	-6884
▁Иҟоу	-6885
▁ахышә	-6886
▁украина	-6887
▁Раԥхьаӡа	-6888
▁ишахәҭоу	-6889
наз	-6890
жәеит	-6891
хысит	-6892
ныҟәара	-6893
▁ҷыдақәа	-6894
еволиуциа	-6895
ҭаца	-6896
▁Гар	-6897
иктор	-6898
лакҭа	-6899
ԥыџьаԥ	-6900
▁сажәа	-6901
ӷәӷәоит	-6902
ԥхьаӡон	-6903
▁ианыла	-6904
▁иқьышә	-6905
▁Кь	-6906
▁Му	-6907
ҵыху	-6908
▁дыла	-6909
▁бжьык	-6910
лыргара	-6911
▁асасааир	-6912
▁аҳара	-6913
ҳауп	-6914
▁мҩак	-6915
▁есқьы	-6916
▁Аҳәынҭ	-6917
сса	-6918
град	-6919
▁аҟы	-6920
▁зҿы	-6921
гьежьы	-6922
▁иаҳар	-6923
ӡра	-6924
шҭра	-6925
▁ҩна	-6926
цәыҵа	-6927
шьома	-6928
▁зымҩа	-6929
▁еидара	-6930
ҭакрақәа	-6931
гба	-6932
зациа	-6933
ҭелиа	-6934
ҵысуа	-6935
▁амаҭ	-6936
▁ариа	-6937
▁даал	-6938
▁зқьы	-6939
▁иныҵа	-6940
▁реиҭа	-6941
ҟаиҵеит	-6942
▁иааила	-6943
▁инеины	-6944
▁иҟазар	-6945
▁илҳәеит	-6946
▁аҳәсақәа	-6947
ԥырҵ	-6948
▁иир	-6949
хьчоз	-6950
ӡазшәа	-6951
▁актив	-6952
▁аныҟә	-6953
▁инхаз	-6954
▁иҿааи	-6955
▁рыбла	-6956
▁Мадина	-6957
▁сыбжьы	-6958
▁имамызт	-6959
▁реиԥылара	-6960
▁ь	-6961
ноу	-6962
шуа	-6963
ыит	-6964
бацыз	-6965
ԥсоит	-6966
▁бырг	-6967
▁насы	-6968
▁амчыбжь	-6969
▁асахьақәа	-6970
деми	-6971
шьырц	-6972
▁еимыр	-6973
▁збеит	-6974
иаҭ	-6975
наҳ	-6976
▁Хым	-6977
▁зда	-6978
▁згәа	-6979
▁гәыла	-6980
▁ироман	-6981
▁аиҳарак	-6982
▁амаҵура	-6983
▁иҳамоуп	-6984
ӷьаҵәы	-6985
цәажәап	-6986
▁шәаргьы	-6987
Ры	-6988
ау	-6989
ҵых	-6990
Ауаа	-6991
ӡацт	-6992
▁еин	-6993
▁архи	-6994
▁ақәым	-6995
▁Занҭар	-6996
▁абааԥсы	-6997
▁ԥсшьара	-6998
мҵа	-6999
▁аҟам	-7000
▁Мрагылара	-7001
ҭха	-7002
Абра	-7003
▁Дыш	-7004
▁ицәгьа	-7005
▁лҿыналхеит	-7006
▁рҿиамҭақәа	-7007
▁афҩы	-7008
▁дҭар	-7009
Кавказ	-7010
ҭазара	-7011
ԥыцқәа	-7012
▁асаби	-7013
▁рыхьӡқәа	-7014
▁шықәсазтәи	-7015
▁Иаар	-7016
ԥхьаны	-7017
▁аалыҵ	-7018
▁ԥшьба	-7019
▁Нанҳәа	-7020
▁рыгәра	-7021
▁ателефон	-7022
вала	-7023
мхеит	-7024
▁заҵә	-7025
ҽынгьы	-7026
▁ишьҭы	-7027
ԥхьаӡоз	-7028
▁иақәиҭ	-7029
▁даауеит	-7030
▁бза	-7031
хәыра	-7032
▁Аӡын	-7033
▁ирзым	-7034
▁иҽази	-7035
▁Бганба	-7036
▁зыгәра	-7037
▁иааины	-7038
▁сазхәыц	-7039
ҭәеи	-7040
▁Дан	-7041
қәеит	-7042
▁2020	-7043
▁Анзор	-7044
▁Захар	-7045
▁аҵана	-7046
зоурала	-7047
▁аныҟала	-7048
▁ишьапқәа	-7049
либа	-7050
хаҭа	-7051
▁иҭыр	-7052
▁еилаҳ	-7053
▁реиҳабы	-7054
чес	-7055
▁шш	-7056
▁ҳп	-7057
▁акьы	-7058
гахьоу	-7059
ҳәшьеи	-7060
▁акрыз	-7061
▁лашьа	-7062
▁иаҩыза	-7063
▁атурнир	-7064
▁Амилаҭтә	-7065
▁абыргцәа	-7066
▁аҟазаара	-7067
наала	-7068
лымӡаа	-7069
ҵаанӡа	-7070
▁сыҟам	-7071
хьазгьы	-7072
жеи	-7073
лҿи	-7074
▁Гер	-7075
заман	-7076
ариант	-7077
▁ирҳәа	-7078
▁аԥеиԥш	-7079
▁џьарак	-7080
▁уаҵәтәи	-7081
▁шәҟәыҩҩцәа	-7082
дион	-7083
ҵәон	-7084
Арахь	-7085
имвол	-7086
▁ҵыԥх	-7087
▁аурым	-7088
▁иҽааи	-7089
ҭҵааратә	-7090
▁жәларык	-7091
▁зхыҵуаз	-7092
▁суҳәоит	-7093
▁лыԥсҭазаара	-7094
хәуа	-7095
▁дых	-7096
гәыӷра	-7097
▁ашәахтә	-7098
ографиатә	-7099
▁рымацара	-7100
▁ажурналист	-7101
мари	-7102
▁Иса	-7103
▁акым	-7104
кьаҿны	-7105
▁лыԥҳа	-7106
▁ахәҭак	-7107
▁уҳәара	-7108
ҵыхәтәан	-7109
▁Абарҭқәа	-7110
гер	-7111
уст	-7112
▁196	-7113
анаго	-7114
гашьа	-7115
▁шыҟам	-7116
▁иреиԥш	-7117
▁џьашьа	-7118
Зы	-7119
ҽыз	-7120
▁Дбар	-7121
▁дшаа	-7122
гьежьны	-7123
▁раҵкыс	-7124
▁инапала	-7125
▁атәылаҿацә	-7126
Ау	-7127
▁Уз	-7128
баҩқәа	-7129
▁иаҭах	-7130
▁ԥшьҩык	-7131
бжьаратә	-7132
хып	-7133
ҵәоз	-7134
▁иҭә	-7135
ринци	-7136
хәҭаз	-7137
▁аныс	-7138
▁аҿын	-7139
▁ҳаса	-7140
▁илбаа	-7141
▁аԥҟара	-7142
▁ҳаракы	-7143
▁даналга	-7144
▁афольклор	-7145
вто	-7146
▁Иск	-7147
▁ҳус	-7148
социа	-7149
шьаша	-7150
▁абжа	-7151
▁анры	-7152
▁реиз	-7153
▁Ҳасан	-7154
▁Аргәын	-7155
▁реизара	-7156
Урыстәыла	-7157
▁зҳәоз	-7158
зыӡырҩы	-7159
▁Ажьгьери	-7160
▁ацәгьара	-7161
▁инарзынаԥшуа	-7162
▁Леуарса	-7163
▁назыгӡо	-7164
▁ахшыҩҵак	-7165
▁политика	-7166
▁Аиқәшаҳаҭра	-7167
схан	-7168
▁уны	-7169
▁ишым	-7170
Саргьы	-7171
хыҩцәа	-7172
▁дааин	-7173
▁лыҩны	-7174
▁округ	-7175
▁ахьӡала	-7176
▁инапаҿы	-7177
▁аиҿцәажәара	-7178
Шьа	-7179
етр	-7180
▁шҳа	-7181
кыкәа	-7182
▁раар	-7183
ҿлымҳара	-7184
▁аԥхасҭа	-7185
▁ҵла	-7186
ҳаным	-7187
▁сани	-7188
кәшара	-7189
▁дналы	-7190
ерсонаж	-7191
▁иахәҭоу	-7192
▁аӡәаӡәала	-7193
▁Краснодартәи	-7194
▁Аҭыԥ	-7195
ҵәҟьан	-7196
▁аԥшьа	-7197
зымхәыц	-7198
▁аинрал	-7199
▁еиҟара	-7200
▁агәхьаа	-7201
▁бызшәеи	-7202
ҷыр	-7203
Сгәы	-7204
ԥоит	-7205
▁инац	-7206
▁ҳауп	-7207
▁иныҟә	-7208
▁гәыбӷан	-7209
▁иаартны	-7210
Дара	-7211
▁ива	-7212
▁рзын	-7213
▁дымҩа	-7214
▁игәам	-7215
▁аҳәеит	-7216
▁аилазаара	-7217
блы	-7218
уга	-7219
Даҽа	-7220
гәыԥ	-7221
есси	-7222
кцәа	-7223
▁Аҵх	-7224
патреҭ	-7225
ҵомызт	-7226
▁усқәа	-7227
▁Гәында	-7228
▁акомиссиа	-7229
▁дҩагылеит	-7230
▁аԥсҭазаараҿы	-7231
▁≈	-7232
ежь	-7233
фоз	-7234
▁рла	-7235
разҟы	-7236
▁зхыз	-7237
шьынак	-7238
ҵеицәа	-7239
▁Багаԥшь	-7240
ҭе	-7241
▁иҳәар	-7242
дырхеит	-7243
лассқәа	-7244
▁зыхҟьаз	-7245
▁афырхацәа	-7246
▁хәышәтәырҭа	-7247
▁Ну	-7248
▁ава	-7249
ӷәӷәо	-7250
▁гәыӷ	-7251
▁иажә	-7252
ҵарақәа	-7253
▁ахәыҷтәы	-7254
▁ру	-7255
ӷьын	-7256
уааит	-7257
мырҟьа	-7258
ҿҳәара	-7259
▁абысҭа	-7260
▁днеиуан	-7261
гәаԥхарала	-7262
▁ааит	-7263
▁ажьа	-7264
▁длеи	-7265
▁абаҟа	-7266
▁ҳџьынџь	-7267
Аус	-7268
раг	-7269
▁Қап	-7270
гылап	-7271
▁рышә	-7272
ҩызоуп	-7273
▁илақәа	-7274
▁исҭаху	-7275
▁шәылшоит	-7276
▁Аҳәынҭқар	-7277
▁еиԥшҵәҟьа	-7278
дыххы	-7279
▁аҭыԥа	-7280
▁цәгьоуп	-7281
ҿым	-7282
▁Бӷа	-7283
▁рин	-7284
▁шыҟа	-7285
▁ҳәоу	-7286
маншәала	-7287
▁ахәаахә	-7288
▁иаԥхьаҟа	-7289
▁адырҩаҽны	-7290
▁аиҿцәажәарақәа	-7291
ынла	-7292
▁Роб	-7293
▁Аҭара	-7294
емократ	-7295
▁имаҭәа	-7296
▁ихьӡала	-7297
економикатә	-7298
қуа	-7299
▁дмы	-7300
▁уҽа	-7301
▁ҳны	-7302
▁ирза	-7303
ижь	-7304
▁икы	-7305
▁злеи	-7306
▁исха	-7307
▁Осман	-7308
▁ршьапы	-7309
▁ҳадгьыл	-7310
▁имҩаԥысуеит	-7311
▁ауснагӡатәқәа	-7312
оҭа	-7313
ҿаз	-7314
▁Ае	-7315
гада	-7316
сыгә	-7317
▁уаз	-7318
хникатә	-7319
▁абылра	-7320
▁асеиԥш	-7321
▁аҳәынҭ	-7322
▁иалҵыз	-7323
▁акакала	-7324
▁акрыфара	-7325
▁Аконститу	-7326
▁Гәылрыԥшь	-7327
▁даҽаџьара	-7328
дра	-7329
мла	-7330
гьан	-7331
андер	-7332
баҳча	-7333
▁аҭоу	-7334
▁дазы	-7335
▁акраа	-7336
▁гәахәа	-7337
▁ҟарҵоит	-7338
жьу	-7339
шԥа	-7340
▁Цә	-7341
царц	-7342
гәаны	-7343
каала	-7344
▁унар	-7345
▁Ҟара	-7346
▁жәаба	-7347
▁дшыҟоу	-7348
▁бзы	-7349
▁инеиуаз	-7350
рыф	-7351
тыз	-7352
ӡуа	-7353
уаны	-7354
▁бна	-7355
▁ҭаны	-7356
газшәа	-7357
▁иаҳаз	-7358
▁уахьы	-7359
▁Аусура	-7360
ҳәшьцәеи	-7361
▁Абасала	-7362
▁дабаҟоу	-7363
▁Акультура	-7364
▁ита	-7365
рыцқь	-7366
▁идунеи	-7367
▁ашьҭахьгьы	-7368
ып	-7369
цәо	-7370
қыр	-7371
лини	-7372
▁уаны	-7373
▁Аԥыза	-7374
гәыбзыӷ	-7375
ҵым	-7376
жәыз	-7377
▁лоу	-7378
▁аблақәа	-7379
▁абырзен	-7380
▁захьӡыз	-7381
▁инеиуан	-7382
республика	-7383
▁аматериалқәа	-7384
фик	-7385
▁Амҷ	-7386
▁цеит	-7387
▁афото	-7388
▁инаир	-7389
ҭагылоу	-7390
▁иубоит	-7391
▁агәнаҳа	-7392
▁саҳәшьа	-7393
▁дахьыҟаз	-7394
▁украинатәи	-7395
вка	-7396
дха	-7397
▁Аҩы	-7398
▁ҳца	-7399
рҭоуп	-7400
▁аҵых	-7401
▁рыԥса	-7402
▁Ахәыҷы	-7403
▁имҩаԥга	-7404
▁аиԥылара	-7405
▁агәылацәа	-7406
ԥон	-7407
▁50	-7408
Амца	-7409
▁Иаб	-7410
▁ацәыргақәҵа	-7411
лаб	-7412
хыц	-7413
ҭҟьа	-7414
▁Лам	-7415
ремиа	-7416
▁изыҟа	-7417
▁ажәала	-7418
▁дгылоуп	-7419
▁иацхраа	-7420
▁рыблақәа	-7421
зеилкаауам	-7422
▁Раԥхьатәи	-7423
▁хархәагақәа	-7424
▁•	-7425
ҟәша	-7426
курор	-7427
хахьан	-7428
▁иарбоу	-7429
▁Еидгыла	-7430
▁ишьҭоуп	-7431
▁ижәҩахыр	-7432
РА	-7433
наԥ	-7434
хир	-7435
▁При	-7436
▁зын	-7437
▁хац	-7438
▁реиҳараҩык	-7439
▁анаџьалбеит	-7440
иор	-7441
цист	-7442
џьоу	-7443
ҽхәа	-7444
▁беи	-7445
гаӡом	-7446
зыԥшит	-7447
мшәара	-7448
уеизгьы	-7449
▁Ааигәа	-7450
▁Леонид	-7451
▁рнапаҿы	-7452
ԥашьа	-7453
▁Таиф	-7454
▁сыхь	-7455
▁ҳама	-7456
▁ицәгь	-7457
ҵарамза	-7458
лет	-7459
енер	-7460
тәиу	-7461
▁издыр	-7462
шьҭихын	-7463
▁ишәақь	-7464
▁руаӡәы	-7465
ҭыжьырҭа	-7466
▁еиҭалҳәеит	-7467
ҵәра	-7468
▁имам	-7469
▁иуба	-7470
▁агәам	-7471
▁ҵыхәа	-7472
▁адрама	-7473
▁ииҭеит	-7474
▁инаганы	-7475
еви	-7476
ӡәи	-7477
ынеи	-7478
▁дхы	-7479
озшәа	-7480
▁исҳәаз	-7481
▁тәа	-7482
гьара	-7483
▁сҭах	-7484
▁актиор	-7485
▁днарыла	-7486
▁ҟамҵакәа	-7487
▁ҳауаажәлар	-7488
ӡиа	-7489
ҟәыш	-7490
▁аау	-7491
▁Кәын	-7492
▁авер	-7493
▁збаз	-7494
▁ашьаҭа	-7495
жәларратә	-7496
▁лаҵарамза	-7497
бзан	-7498
ҵҟьан	-7499
▁ихым	-7500
▁аушьҭ	-7501
▁исҳәо	-7502
▁еиԥшым	-7503
▁ишнеиуаз	-7504
Амҩа	-7505
▁ича	-7506
▁рыжә	-7507
раамҭак	-7508
▁убраҟа	-7509
иҵаз	-7510
рахә	-7511
мадан	-7512
хаанӡа	-7513
▁иҩныҟа	-7514
▁даанхеит	-7515
▁аоперациа	-7516
▁ҳаҷкәынцәа	-7517
шьыл	-7518
▁сҽы	-7519
сҵеит	-7520
▁аҵак	-7521
дкылан	-7522
нахуеит	-7523
▁Виктор	-7524
▁Шьабаҭ	-7525
▁абнара	-7526
▁ипресс	-7527
▁убрахь	-7528
кәны	-7529
сцәа	-7530
сырц	-7531
ччан	-7532
▁Ҳаб	-7533
▁иама	-7534
▁ҭоуп	-7535
▁алаԥш	-7536
мин	-7537
ҷаб	-7538
▁сых	-7539
▁сшьа	-7540
▁иалкаа	-7541
ԥсо	-7542
дгылт	-7543
ҿакны	-7544
ԥшырц	-7545
▁Ахьы	-7546
еиқәыр	-7547
▁сеиԥш	-7548
▁иазааигәа	-7549
▁Сҭа	-7550
▁уҿы	-7551
хьӡеит	-7552
▁еизыр	-7553
▁уахык	-7554
▁ҳаҟан	-7555
шьомызт	-7556
ден	-7557
Уаҳа	-7558
▁Мыш	-7559
ызмал	-7560
▁акад	-7561
хырҭатә	-7562
▁амамкәа	-7563
▁драматә	-7564
▁дҟалеит	-7565
▁ируакуп	-7566
▁аоперативтә	-7567
▁Аԥша	-7568
▁ибӷа	-7569
хыҵуаз	-7570
▁адәны	-7571
▁алкаа	-7572
▁иаҟәы	-7573
▁ҭынха	-7574
хынҳәыз	-7575
уш	-7576
лим	-7577
▁анс	-7578
шьуаз	-7579
▁амшә	-7580
▁аҭра	-7581
▁стат	-7582
крақәа	-7583
▁рхатә	-7584
▁жәабжь	-7585
▁ианнеи	-7586
тизанцәа	-7587
▁иҳәамҭоуп	-7588
ҵои	-7589
батә	-7590
лықә	-7591
гәлиа	-7592
▁даас	-7593
▁алахә	-7594
▁ҭыԥҳа	-7595
нуҵҟатәи	-7596
▁Аҭоурых	-7597
▁даныҟаз	-7598
▁далагоит	-7599
▁рлахьынҵа	-7600
▁аиқәырхара	-7601
хымс	-7602
кааша	-7603
▁ҳаиц	-7604
▁ԥшьы	-7605
▁иҳәит	-7606
▁апоема	-7607
▁рҽазыр	-7608
▁амамызт	-7609
▁иахьанӡа	-7610
конференциа	-7611
▁Ареспубликатә	-7612
.).	-7613
кып	-7614
▁лԥа	-7615
▁мар	-7616
▁Аила	-7617
шьҭала	-7618
▁ажәла	-7619
▁ахәҭаҷ	-7620
▁ашьақә	-7621
ҳәарақәа	-7622
ҳәынҭқар	-7623
▁ҳбызшәа	-7624
▁еизыҟазаашьақәа	-7625
▁ӷ	-7626
▁оп	-7627
Аԥша	-7628
шәуа	-7629
қьоу	-7630
ҩгьы	-7631
▁Кар	-7632
▁бан	-7633
▁изу	-7634
▁оума	-7635
▁ӡәыр	-7636
▁аиҵбы	-7637
▁бӷьыц	-7638
▁доусы	-7639
▁Григори	-7640
▁Лагәлаа	-7641
▁дындәылҵит	-7642
▁Иас	-7643
▁Кәтол	-7644
▁џьанаҭ	-7645
▁ачемпионат	-7646
ужь	-7647
▁ҳша	-7648
▁аԥҳа	-7649
▁иаԥыр	-7650
▁иҭынч	-7651
лаш	-7652
ҵыра	-7653
▁амҿы	-7654
▁Аԥҳәыс	-7655
▁рахьынтә	-7656
▁иаҿу	-7657
ырҭынч	-7658
сыхә	-7659
▁Сим	-7660
шәмыр	-7661
ҳареи	-7662
▁Уаҵәы	-7663
▁иалар	-7664
▁аномер	-7665
▁иԥацәа	-7666
▁акурорт	-7667
▁Иахьагьы	-7668
▁аӡӷабцәа	-7669
▁ҳаԥсҭазаара	-7670
Акы	-7671
лир	-7672
▁Аша	-7673
▁уҭа	-7674
▁ӷба	-7675
ӡырха	-7676
▁иқәа	-7677
ԥшӡара	-7678
▁Иоанн	-7679
блиотека	-7680
мҩаԥгатә	-7681
▁ишиҳәаз	-7682
▁иқәынхо	-7683
▁Аиԥылара	-7684
▁реидгыла	-7685
▁аҿагылара	-7686
цахә	-7687
▁Аре	-7688
Аиаша	-7689
қьаны	-7690
▁Рашь	-7691
▁асиужет	-7692
▁сашьцәа	-7693
▁Ҵәыџьԥҳа	-7694
лиз	-7695
▁мш	-7696
бжьар	-7697
▁ралага	-7698
▁уажәыҵәҟьа	-7699
Аҵ	-7700
реиԥш	-7701
хареи	-7702
ҳәыит	-7703
▁2019	-7704
▁Ацәа	-7705
▁Ешба	-7706
▁дцәыр	-7707
▁иикыз	-7708
▁аинформациатә	-7709
уади	-7710
▁қәы	-7711
дасоу	-7712
▁ашәақь	-7713
▁лылаԥш	-7714
риот	-7715
рықә	-7716
▁Ага	-7717
▁хан	-7718
сигәа	-7719
еиҵеит	-7720
▁аҭакс	-7721
▁мызкы	-7722
▁хацыр	-7723
▁ихәмар	-7724
▁асолдаҭ	-7725
▁иаабоит	-7726
▁ахәылԥаз	-7727
▁Изы	-7728
рақәеи	-7729
▁агәыла	-7730
▁ишырҳәо	-7731
▁иашьҭоуп	-7732
улҭан	-7733
озициа	-7734
▁Бигәаа	-7735
▁аамҭеи	-7736
▁иҟарҵо	-7737
▁акәхоит	-7738
▁иахьабалак	-7739
▁Бел	-7740
▁Там	-7741
▁иҟау	-7742
бак	-7743
дин	-7744
курс	-7745
шомызт	-7746
▁ишьҭан	-7747
▁Мардасоу	-7748
▁макьаназ	-7749
▁факультет	-7750
▁ҳлитература	-7751
on	-7752
▁ҟ	-7753
▁аҩн	-7754
ҭахха	-7755
▁инка	-7756
▁исоу	-7757
Адунеи	-7758
▁заҵәы	-7759
▁зҳәаз	-7760
▁аҿырԥш	-7761
▁иазгәалҭеит	-7762
ессор	-7763
▁дшәа	-7764
лаԥшуа	-7765
▁лхала	-7766
▁ҷкәынак	-7767
Га	-7768
агьы	-7769
ызго	-7770
▁195	-7771
▁ауар	-7772
▁иҟьа	-7773
▁чара	-7774
диҵеит	-7775
шьарҭа	-7776
еижьҭеи	-7777
куамызт	-7778
▁ахәԥса	-7779
гәышьоуп	-7780
ԥсазтәыз	-7781
▁иашьҭан	-7782
▁аԥарақәа	-7783
Аҭа	-7784
лафа	-7785
▁Маҳ	-7786
тегор	-7787
▁аинв	-7788
▁дызус	-7789
▁заҳаз	-7790
▁ргәыԥ	-7791
▁Џьынџьал	-7792
▁иаҩызоуп	-7793
▁мҩаԥыргоит	-7794
▁ацҳаражәҳәаҩ	-7795
жәны	-7796
▁иалы	-7797
оналтә	-7798
▁Иҟала	-7799
▁Гогәуа	-7800
▁Дарбан	-7801
▁еиҳаны	-7802
сахьақәа	-7803
▁ҳашьцәа	-7804
цәкьарақәа	-7805
▁имаҷымкәа	-7806
▁000	-7807
ҷаԥшь	-7808
▁дцаны	-7809
▁изкны	-7810
▁акәакь	-7811
▁аганқәа	-7812
цхраауеит	-7813
▁ачымазаҩ	-7814
▁сыблақәа	-7815
▁ҩымҭақәа	-7816
▁Аԥснынтәи	-7817
Шьҭа	-7818
ҩеит	-7819
▁Вас	-7820
совет	-7821
▁абӷа	-7822
▁изку	-7823
шәагьы	-7824
ҵҟатәи	-7825
▁Асааҭ	-7826
▁Сырма	-7827
▁Роберт	-7828
▁уажәтәи	-7829
вали	-7830
лома	-7831
▁шәын	-7832
гьежьа	-7833
ерқьес	-7834
паҵаҟа	-7835
шәҭҳәа	-7836
▁наиқә	-7837
ԥшӡакәа	-7838
▁агәабзиара	-7839
еон	-7840
▁Ӡа	-7841
ҳәац	-7842
▁дҩы	-7843
▁еиԥ	-7844
▁аҟар	-7845
гахьеит	-7846
гәырӷьон	-7847
ҭынхацәа	-7848
▁иахьыҟаз	-7849
▁иԥхьаӡоуп	-7850
ҳаражәҳәарҭа	-7851
ҿра	-7852
▁абз	-7853
уаҩра	-7854
ҭикәа	-7855
ҵазар	-7856
▁Ауха	-7857
▁Свет	-7858
▁сыма	-7859
▁цоит	-7860
▁аҭара	-7861
▁дахьи	-7862
▁доуҳа	-7863
▁Базала	-7864
шкин	-7865
заҟан	-7866
ламыс	-7867
хыҵра	-7868
ԥынҵа	-7869
▁иалху	-7870
▁иашоуп	-7871
дыруазааит	-7872
▁абызшәақәа	-7873
хәык	-7874
хыҵуа	-7875
▁Џьгь	-7876
▁Гәыр	-7877
▁Дауҭ	-7878
▁Егры	-7879
гараны	-7880
▁рҿгьы	-7881
▁Аҷкәын	-7882
▁сшәоит	-7883
ред	-7884
асса	-7885
▁афи	-7886
▁лаф	-7887
▁суа	-7888
▁абан	-7889
▁згаз	-7890
▁избаз	-7891
▁ҿырԥш	-7892
▁илҳәаз	-7893
▁егьыҟам	-7894
▁иаацәыр	-7895
▁уҳәартә	-7896
▁аламҭалаз	-7897
шьом	-7898
▁Саа	-7899
▁рал	-7900
бакәа	-7901
ионер	-7902
шәыра	-7903
Адгьыл	-7904
▁нхара	-7905
даҭлара	-7906
ԥырхагам	-7907
▁Цәыббра	-7908
▁арегион	-7909
шаа	-7910
мчқәа	-7911
ҵәҵәа	-7912
▁схаҭа	-7913
▁ахьтәы	-7914
▁иҩуеит	-7915
▁уажәазы	-7916
▁дцәажәон	-7917
▁материал	-7918
▁абжьааԥны	-7919
▁сыԥсҭазаара	-7920
▁Ила	-7921
▁слы	-7922
▁Ҭыр	-7923
ԥхара	-7924
▁исза	-7925
▁ахылаԥшра	-7926
▁иаҳҳәозар	-7927
▁реицәажәара	-7928
бӷьы	-7929
▁Рас	-7930
ҟарҵо	-7931
▁дааз	-7932
дгьыли	-7933
▁аеҵәа	-7934
▁лажәа	-7935
▁Искандер	-7936
▁аредактор	-7937
▁еилазаара	-7938
▁аветеранцәа	-7939
Аҳа	-7940
лиеи	-7941
ушьа	-7942
ԥсон	-7943
▁әын	-7944
харра	-7945
шәтәра	-7946
▁реизга	-7947
хысҳәаауа	-7948
ԥу	-7949
Аӡы	-7950
нес	-7951
мҭак	-7952
ҟәра	-7953
ҽыша	-7954
▁193	-7955
▁мари	-7956
▁тәым	-7957
цәыӡит	-7958
▁даана	-7959
▁ҳамаӡам	-7960
▁ашәахәақәа	-7961
гам	-7962
леҭ	-7963
ӷеи	-7964
араны	-7965
аԥсуа	-7966
емонт	-7967
▁шәыс	-7968
▁иуада	-7969
быжьқәа	-7970
ҳәозшәа	-7971
▁иаауан	-7972
▁инхоит	-7973
ҳалалратә	-7974
▁ажәақәак	-7975
▁имҩаԥгаз	-7976
▁алацәажәара	-7977
анг	-7978
▁40	-7979
▁Уб	-7980
хьыс	-7981
▁Рим	-7982
ԥхоит	-7983
гаанӡа	-7984
▁Шьасиа	-7985
▁ҭагалан	-7986
▁аеҵәақәа	-7987
▁еиҳаракгьы	-7988
▁шаҳ	-7989
▁Ҭем	-7990
▁ӡба	-7991
џьалы	-7992
▁Ашҭа	-7993
▁ддәы	-7994
▁дышә	-7995
▁злам	-7996
▁убла	-7997
▁еилаз	-7998
▁иҭахым	-7999
▁еизганы	-8000
▁Қьалашь	-8001
▁адунеитә	-8002
бер	-8003
лал	-8004
оро	-8005
▁досу	-8006
▁дула	-8007
латәуп	-8008
▁алаба	-8009
▁ҳамҩа	-8010
шьхақәа	-8011
▁анырба	-8012
▁заанаҵ	-8013
▁инаскьа	-8014
▁днатәеит	-8015
▁зыԥсҭазаара	-8016
▁тәи	-8017
▁ҳәо	-8018
▁алам	-8019
башьуаз	-8020
▁иақәыр	-8021
▁убасҵәҟьа	-8022
лӡ	-8023
▁сҿа	-8024
лиард	-8025
лымшо	-8026
чҳара	-8027
▁иҩит	-8028
шәозар	-8029
▁ааӡара	-8030
▁инеиуа	-8031
▁сҿынас	-8032
▁алитературеи	-8033
Гә	-8034
ану	-8035
ҿаа	-8036
гӡоз	-8037
дуны	-8038
▁ааԥ	-8039
▁кәы	-8040
арыла	-8041
гиатә	-8042
шьҭым	-8043
▁Иури	-8044
баӡакәа	-8045
▁ачымаз	-8046
▁аспорти	-8047
▁иҟазшьа	-8048
▁Занҭариа	-8049
▁инеиуеит	-8050
▁апарламент	-8051
пын	-8052
▁Еил	-8053
▁Рос	-8054
Насгьы	-8055
▁арбан	-8056
рыскьыл	-8057
▁аублаа	-8058
оронавирус	-8059
ҵәца	-8060
ӷьра	-8061
гарҭа	-8062
▁Заҟа	-8063
▁Сала	-8064
▁агха	-8065
▁иқьа	-8066
▁шьха	-8067
▁азҵаа	-8068
▁аамҭак	-8069
▁агуман	-8070
▁алхратә	-8071
▁рҿаԥыцтә	-8072
▁апроблемақәа	-8073
пора	-8074
ҩҳәа	-8075
ҵаар	-8076
газар	-8077
▁адин	-8078
▁арза	-8079
▁инха	-8080
дырреи	-8081
▁ҳаман	-8082
▁ааганы	-8083
▁уазхәыц	-8084
▁Урыстәылаҟа	-8085
еам	-8086
ҵкы	-8087
Ашәа	-8088
арԥа	-8089
илом	-8090
рыма	-8091
▁амет	-8092
▁длым	-8093
ҭалеит	-8094
▁срыла	-8095
▁аламыс	-8096
ҵып	-8097
ҿас	-8098
▁ибыл	-8099
▁хаха	-8100
кылсит	-8101
▁рхаҭақәа	-8102
иур	-8103
наҭоит	-8104
▁ирыҵа	-8105
▁ҳахьы	-8106
хшьаала	-8107
хьоузеи	-8108
ԥсыкала	-8109
▁аидеиа	-8110
бзоураны	-8111
қьышәқәа	-8112
▁рыхьчара	-8113
▁исгәалашәоит	-8114
дуард	-8115
▁ҩымш	-8116
аалҭит	-8117
рымызт	-8118
▁иҟынтә	-8119
▁Маршьан	-8120
▁ҟалҵеит	-8121
▁уҭахызар	-8122
раҭашәаратәи	-8123
џыр	-8124
▁Ҽа	-8125
▁Ԥлиа	-8126
▁ҿиара	-8127
ҳәахьаз	-8128
▁мҩашьо	-8129
▁аобиект	-8130
▁ҳҭоурых	-8131
оҳ	-8132
▁Ахьӡ	-8133
▁даҿа	-8134
наскьа	-8135
ҭалҳәеит	-8136
економика	-8137
▁рыҟаҵара	-8138
бжьышьҭахь	-8139
▁лак	-8140
▁ҳах	-8141
ӡареи	-8142
▁араз	-8143
▁иаҿы	-8144
▁комп	-8145
хагыла	-8146
ҳәозеи	-8147
мырхакәа	-8148
▁асистема	-8149
▁мҩаԥгахоит	-8150
▁Ген	-8151
Араҟа	-8152
аанӡа	-8153
ҭахаз	-8154
ҳәқәа	-8155
▁арым	-8156
▁дуаҩ	-8157
▁иава	-8158
▁иаҳәа	-8159
▁ҵаҵӷәыс	-8160
▁абарҭқәа	-8161
▁агәаҭара	-8162
▁маҷымкәа	-8163
▁ҿымҭӡакәа	-8164
хыџ	-8165
▁инф	-8166
остол	-8167
хиеит	-8168
ҷкәым	-8169
▁иҳәо	-8170
▁ыҟоу	-8171
▁агәарԥ	-8172
▁џьабаа	-8173
▁ганкахьала	-8174
▁аҳәынҭқаррақәа	-8175
ԥхоз	-8176
лҵшьҭра	-8177
▁аҿынӡа	-8178
▁ҿарацәа	-8179
▁ҳаамҭазтәи	-8180
они	-8181
шәаа	-8182
ҳҵар	-8183
жәаба	-8184
такси	-8185
▁Иани	-8186
▁џьыс	-8187
ҭомызт	-8188
▁дцарц	-8189
▁снықә	-8190
▁аерман	-8191
▁анарко	-8192
▁аԥхьар	-8193
▁Ԥхынгәы	-8194
▁апроцесс	-8195
жим	-8196
скит	-8197
▁Ақа	-8198
лҵуаз	-8199
сҳәан	-8200
ҵәахны	-8201
ҿиареи	-8202
▁дыҩны	-8203
▁ргеит	-8204
▁избеит	-8205
▁Шьардын	-8206
▁рымамызт	-8207
▁Ажәеинраала	-8208
быџь	-8209
раҳа	-8210
ҩрны	-8211
▁хҭы	-8212
итинг	-8213
▁2018	-8214
қәылаз	-8215
▁ҳаӷацәа	-8216
варгыланы	-8217
▁амилаҭқәа	-8218
▁арҿиаратә	-8219
ули	-8220
уази	-8221
ххит	-8222
▁моу	-8223
ҩнала	-8224
▁илар	-8225
▁ишыҟа	-8226
хӡа	-8227
▁Лу	-8228
арым	-8229
хным	-8230
▁дыб	-8231
▁Алмас	-8232
▁амаӡа	-8233
▁ирлас	-8234
▁иҩымҭа	-8235
▁лаԥхьа	-8236
▁Ажәабжь	-8237
▁рганахь	-8238
▁аицлабра	-8239
угьы	-8240
▁Иры	-8241
ԥсала	-8242
▁Баша	-8243
▁игон	-8244
▁гылан	-8245
▁дахьаа	-8246
▁аимпериа	-8247
▁мышкызны	-8248
▁иҟазаргьы	-8249
▁иҭахымызт	-8250
цаҩ	-8251
▁).	-8252
▁Ор	-8253
▁лыл	-8254
баауа	-8255
цәшәа	-8256
қәтәа	-8257
▁афил	-8258
▁Кадыр	-8259
ҵәҟьоуп	-8260
▁Иҭабуп	-8261
гәеиҭоит	-8262
▁аредакциа	-8263
▁Ме	-8264
▁аӷ	-8265
▁еп	-8266
лена	-8267
ларын	-8268
▁апарк	-8269
▁аӡәык	-8270
зышьҭра	-8271
▁Гәынба	-8272
▁Бӷажәба	-8273
22	-8274
енд	-8275
ила	-8276
фын	-8277
▁еҵәа	-8278
▁исзы	-8279
▁акәыр	-8280
▁ықәыр	-8281
шьҭалан	-8282
▁иааныр	-8283
▁уахгьы	-8284
▁қалақь	-8285
гьежьуан	-8286
▁даҽакгьы	-8287
ных	-8288
фед	-8289
шьч	-8290
Аԥса	-8291
експ	-8292
зымы	-8293
чқәа	-8294
▁зцәа	-8295
▁иргеит	-8296
▁ргәала	-8297
▁исымоуп	-8298
▁имҩаԥысыз	-8299
▁иԥшәмаԥҳәыс	-8300
еиуа	-8301
зықь	-8302
неиԥш	-8303
хысуа	-8304
▁аҭәа	-8305
▁иқәым	-8306
▁аныҟәа	-8307
▁ибзиоуп	-8308
▁Ҭарсхан	-8309
▁ҳасабла	-8310
▁мшаԥымза	-8311
хн	-8312
дҵа	-8313
ерк	-8314
қыџь	-8315
▁Кам	-8316
Ҳәара	-8317
▁Аиеи	-8318
▁хымш	-8319
оукгьы	-8320
ҩыџьак	-8321
▁имаҳа	-8322
▁аимадара	-8323
▁Аминистрра	-8324
АТ	-8325
Бзиа	-8326
гәны	-8327
лекс	-8328
▁сал	-8329
▁ска	-8330
▁Аҽны	-8331
▁арха	-8332
▁нагӡа	-8333
▁шьҭар	-8334
▁ианакә	-8335
дамхаргьы	-8336
зыӡырҩуан	-8337
шәк	-8338
ҿоуп	-8339
ҳәада	-8340
▁Знык	-8341
▁Уасил	-8342
▁иаман	-8343
ҭахымыз	-8344
▁аагеит	-8345
▁замана	-8346
▁Афырхаҵа	-8347
▁акамбашь	-8348
▁идәықәлеит	-8349
▁макьанагьы	-8350
ЖәР	-8351
цры	-8352
бага	-8353
хәыр	-8354
ҿиаз	-8355
▁Вол	-8356
▁Манча	-8357
хьынџьара	-8358
▁ацәқәырԥақәа	-8359
21	-8360
база	-8361
▁Лаб	-8362
▁Ачба	-8363
▁Аӡәгьы	-8364
▁Азакәан	-8365
▁ихадароу	-8366
▁амҩахәасҭа	-8367
▁Ца	-8368
▁Ҟә	-8369
сҭеи	-8370
▁Угәы	-8371
▁иқәуп	-8372
▁иҳамаз	-8373
▁Иахьазы	-8374
▁хылаԥшра	-8375
▁аҷыдарақәа	-8376
▁аилацәажәара	-8377
гн	-8378
мзи	-8379
бааи	-8380
ылар	-8381
етрак	-8382
кадемиа	-8383
▁аиҿкаа	-8384
▁аҳамҭа	-8385
▁издыруамызт	-8386
есто	-8387
▁Иаха	-8388
▁Хара	-8389
▁аҵас	-8390
▁сзаа	-8391
ҭеикит	-8392
▁акәыз	-8393
▁ишала	-8394
ӡарақәа	-8395
▁хеилак	-8396
▁лакәзар	-8397
▁аӡлагара	-8398
▁инадҳәаланы	-8399
тәон	-8400
џьаа	-8401
ҟарҵа	-8402
▁ашах	-8403
▁аҿыц	-8404
▁Едуард	-8405
▁иҽаани	-8406
колнхара	-8407
қырџьалы	-8408
▁рымаӡам	-8409
▁рҳа	-8410
▁иаци	-8411
▁Алада	-8412
▁Ҩыџьа	-8413
неиуеит	-8414
▁Ибзиоуп	-8415
▁аџьармыкьа	-8416
▁аспортсменцәа	-8417
кәкә	-8418
▁шын	-8419
▁ауам	-8420
▁иалым	-8421
▁ицқьа	-8422
▁аорден	-8423
▁рыдгьыл	-8424
Аҵыхәтәан	-8425
еилазаара	-8426
▁нызқьҩык	-8427
цом	-8428
ҵәыу	-8429
ӡбаз	-8430
арала	-8431
центр	-8432
▁ахым	-8433
баауеит	-8434
▁абаҟоу	-8435
▁иаҭаху	-8436
▁ҩышықәса	-8437
зааҭгылеит	-8438
▁зыԥсадгьыл	-8439
▁Апрокуратура	-8440
есса	-8441
куам	-8442
қәра	-8443
▁100	-8444
нагаз	-8445
ԥшыло	-8446
▁Еиду	-8447
▁бзан	-8448
▁икын	-8449
▁ааины	-8450
▁аԥшра	-8451
▁изықә	-8452
▁дынхон	-8453
маҭәақәа	-8454
▁Абыржәы	-8455
▁здыруаз	-8456
▁зеиԥшраз	-8457
лҭ	-8458
ԥсра	-8459
▁Есы	-8460
ӡуеит	-8461
▁аным	-8462
андари	-8463
гаратә	-8464
▁астат	-8465
▁аҭаны	-8466
▁ибаны	-8467
▁исҭахуп	-8468
▁аҟаҵарба	-8469
теллигенциа	-8470
арыз	-8471
инаҭ	-8472
рҭак	-8473
ҟәаҵ	-8474
▁Мад	-8475
▁мра	-8476
▁рак	-8477
▁ишыз	-8478
▁ишын	-8479
жәлари	-8480
шьааит	-8481
▁ахәаша	-8482
иала	-8483
тәуа	-8484
▁аме	-8485
▁дим	-8486
аниеи	-8487
ԥылаз	-8488
▁дуны	-8489
цароуп	-8490
ҳәартә	-8491
▁ҳмилаҭ	-8492
▁далахәын	-8493
▁ргәаанагара	-8494
тип	-8495
▁Ед	-8496
жәеи	-8497
иттә	-8498
итәы	-8499
▁ааҵ	-8500
жәқәа	-8501
▁иибоз	-8502
ҳәахьан	-8503
▁акәара	-8504
▁баргьы	-8505
▁снеиуеит	-8506
▁Уаԥстәылеи	-8507
ута	-8508
▁Мир	-8509
▁рҩы	-8510
мазеи	-8511
аргеит	-8512
олькло	-8513
▁жәохә	-8514
▁дызҿыз	-8515
сыргәыҵа	-8516
▁Иаразнак	-8517
▁программа	-8518
Ама	-8519
унк	-8520
▁сус	-8521
▁аҵан	-8522
кыларц	-8523
ччаԥшь	-8524
▁иарӷьа	-8525
гәырӷьаны	-8526
ныҳәалоит	-8527
▁ахәрақәа	-8528
Иан	-8529
дырт	-8530
тема	-8531
ҳҵап	-8532
ԥсыз	-8533
сҳәап	-8534
ҭәаны	-8535
▁ачча	-8536
▁дрыц	-8537
наҳара	-8538
▁ҳабацәа	-8539
▁аԥшәмацәа	-8540
▁мҩаԥыргеит	-8541
▁иадамхаргьы	-8542
озеи	-8543
▁зар	-8544
▁Ахан	-8545
▁Нази	-8546
иаанӡа	-8547
▁арҩаш	-8548
коллега	-8549
хагылаз	-8550
хыраагӡа	-8551
▁инаӡоит	-8552
▁ахаҳәқәа	-8553
▁рымамкәа	-8554
▁ацынхәрас	-8555
▁мрагылара	-8556
ҩегь	-8557
▁апу	-8558
сааҭк	-8559
ҭатәи	-8560
Ажәлар	-8561
▁санаа	-8562
зыԥшуан	-8563
▁изеиԥш	-8564
▁Даҭикәа	-8565
▁агәҭаны	-8566
▁ауаагьы	-8567
▁далгеит	-8568
▁доуҳала	-8569
цәыхьчаразы	-8570
мс	-8571
оч	-8572
▁Ен	-8573
▁хи	-8574
инал	-8575
▁Мша	-8576
демик	-8577
▁акап	-8578
гәаҭеи	-8579
гәаҳәа	-8580
▁исымаз	-8581
геижьҭеи	-8582
▁аҩнуҵҟатәи	-8583
▁ҳәынҭқарратә	-8584
зоуп	-8585
▁ззы	-8586
▁хыҭ	-8587
хуада	-8588
хысыз	-8589
шәақь	-8590
▁ахыҵ	-8591
▁ицца	-8592
▁иибаз	-8593
▁иоуит	-8594
▁иазааи	-8595
ҭахымызт	-8596
▁Аҭаацәа	-8597
▁азанааҭ	-8598
▁аԥхьахә	-8599
▁рыхьӡала	-8600
▁еиқәаҵәақәа	-8601
иуа	-8602
шша	-8603
нади	-8604
гәыди	-8605
▁Чачба	-8606
▁еиӷьу	-8607
▁Лакрба	-8608
▁хазына	-8609
▁Аусбарҭа	-8610
▁	-8611
▁Аҷ	-8612
ҿала	-8613
▁Вен	-8614
▁аци	-8615
▁Ахәа	-8616
▁иуаа	-8617
▁иуза	-8618
▁шәахь	-8619
▁ахьымӡӷ	-8620
▁иаарԥшуп	-8621
▁иуаажәлар	-8622
лашә	-8623
ҩана	-8624
▁Гор	-8625
▁еиҵ	-8626
▁нҭа	-8627
цәоит	-8628
баргьы	-8629
ҩналаз	-8630
▁усҟак	-8631
▁Аизара	-8632
▁алымҳа	-8633
▁аҭахым	-8634
▁рҭахуп	-8635
гәалаҳар	-8636
▁зҵаарақәа	-8637
итаи	-8638
▁Сар	-8639
▁иим	-8640
▁иӡы	-8641
▁аста	-8642
▁баны	-8643
ҟарҵеит	-8644
▁хәлаанӡа	-8645
,5	-8646
гет	-8647
рет	-8648
бора	-8649
хама	-8650
хаҿы	-8651
ҭира	-8652
▁дшәы	-8653
▁Акгьы	-8654
▁Сафар	-8655
▁дагьы	-8656
▁дыԥха	-8657
зарбзан	-8658
▁аҿынтә	-8659
▁ртәыла	-8660
▁сгәаҵа	-8661
дыруазеи	-8662
▁Баҭаҟәа	-8663
глы	-8664
нет	-8665
▁иаҳза	-8666
▁ныҟәа	-8667
▁дынхьа	-8668
▁имаӡам	-8669
ультуреи	-8670
▁агыгшәыг	-8671
шԥы	-8672
▁Кы	-8673
рыхи	-8674
иачес	-8675
рыжьит	-8676
ҳәацәа	-8677
▁рымаҵ	-8678
▁данцоз	-8679
▁нарықә	-8680
чеиџьыка	-8681
▁аԥшаара	-8682
▁рылшоит	-8683
▁азгәалҭеит	-8684
нах	-8685
зегьы	-8686
ыланы	-8687
▁Иана	-8688
▁ишим	-8689
▁хәҷы	-8690
ҵлақәа	-8691
▁иаҵоу	-8692
▁игана	-8693
▁шәоуп	-8694
▁ауаҩра	-8695
▁гәҩара	-8696
▁ишазгәа	-8697
▁дшааиуаз	-8698
Аҩ	-8699
▁ыҵ	-8700
анкт	-8701
ҟәыз	-8702
мониа	-8703
▁дцан	-8704
▁ирҿы	-8705
сасцәа	-8706
▁Қапба	-8707
▁анырҳәа	-8708
▁лымкаала	-8709
еру	-8710
том	-8711
чны	-8712
едал	-8713
ихит	-8714
шәра	-8715
ҟаца	-8716
▁нац	-8717
гылам	-8718
▁акьа	-8719
▁имца	-8720
▁Џьанар	-8721
▁исымоу	-8722
▁Сҭампыл	-8723
▁администра	-8724
▁игәалашәара	-8725
▁аҳәаанырцәтәи	-8726
цхә	-8727
Агәы	-8728
ҳәра	-8729
▁инҭ	-8730
шагьы	-8731
ҳартә	-8732
▁Абжьы	-8733
▁абааш	-8734
▁ихәыҷ	-8735
▁рыкәа	-8736
▁еиӷьны	-8737
зааигәоу	-8738
▁лабҿаба	-8739
▁Хәажәкыра	-8740
▁аибашьраҿы	-8741
:4	-8742
мариа	-8743
▁Авто	-8744
▁икьа	-8745
▁ицыз	-8746
гьылаҿ	-8747
марахь	-8748
хәыцны	-8749
ҵәахыз	-8750
▁автомат	-8751
▁изеилым	-8752
зеилымкаа	-8753
Ах	-8754
▁ə	-8755
жра	-8756
имыр	-8757
олимп	-8758
▁Нарҭ	-8759
▁ҳауа	-8760
аспорт	-8761
▁акомп	-8762
ырцыруа	-8763
қәырҵеит	-8764
▁ауардын	-8765
▁лаҳәшьа	-8766
▁ҳаракны	-8767
политикатә	-8768
▁раԥхьаӡатәи	-8769
er	-8770
гацәа	-8771
ториа	-8772
▁нақә	-8773
гәышьа	-8774
ныҟәоз	-8775
▁Аҵыхә	-8776
▁аизга	-8777
хцәажәо	-8778
ҵауланы	-8779
▁имаҵура	-8780
▁Џьансыхә	-8781
▁Москваҟа	-8782
мырҟьаӡакәа	-8783
▁анҵәамҭазы	-8784
Ха	-8785
анеа	-8786
▁дин	-8787
цәшәо	-8788
▁қырҭ	-8789
▁Ҳарҭ	-8790
лымӡаах	-8791
▁ишәаны	-8792
▁иҟаиҵа	-8793
▁лнапқәа	-8794
▁рыгәқәа	-8795
▁аиҭакрақәа	-8796
▁иалацәажәеит	-8797
каҿ	-8798
лда	-8799
урц	-8800
гауа	-8801
ҭаха	-8802
▁Ели	-8803
▁ашы	-8804
▁иҵы	-8805
▁хыз	-8806
▁ӡыр	-8807
▁гәеи	-8808
каареи	-8809
хьчоит	-8810
ԥҵәара	-8811
▁далыр	-8812
▁иабду	-8813
дәықәла	-8814
▁ҟарҵон	-8815
культуратә	-8816
▁аҭыԥҳацәа	-8817
Ча	-8818
Ишԥа	-8819
ҩыда	-8820
енгиз	-8821
қьала	-8822
ҭанаа	-8823
▁Абаа	-8824
▁атом	-8825
▁шәан	-8826
▁шәҟә	-8827
ӷрақәа	-8828
▁ҿаалҭит	-8829
▁дхынҳәит	-8830
▁адаҟьақәа	-8831
▁адгьылқәа	-8832
▁абжьаратәи	-8833
▁ашәарҭадара	-8834
▁A	-8835
Иза	-8836
кат	-8837
хҩы	-8838
сыжь	-8839
ылаз	-8840
ҵәеи	-8841
▁бхы	-8842
▁ҵас	-8843
шәшәо	-8844
▁Адәы	-8845
▁ааҭи	-8846
▁иамы	-8847
▁мчык	-8848
▁нана	-8849
▁ҳшеи	-8850
▁абахә	-8851
▁иҭбаа	-8852
ҭагылаз	-8853
▁аҽаҩра	-8854
ԥыларақәа	-8855
▁абриаҟара	-8856
Ыы	-8857
ӡӡа	-8858
зиль	-8859
знык	-8860
иара	-8861
ԥыза	-8862
▁жур	-8863
▁лыҽ	-8864
анхаз	-8865
баӡои	-8866
салиа	-8867
▁ауми	-8868
▁узла	-8869
▁узым	-8870
▁уаала	-8871
▁дыԥшуа	-8872
хырҭақәа	-8873
ҳәарызеи	-8874
▁афымцамч	-8875
▁ашьапқәа	-8876
▁ирҿиаратә	-8877
▁асахьаҭыхы	-8878
ҩу	-8879
Даа	-8880
мыт	-8881
оза	-8882
ирҭа	-8883
▁Иԥа	-8884
напык	-8885
ԥшьба	-8886
▁бжак	-8887
галаны	-8888
▁исықә	-8889
шәҟәқәа	-8890
▁ыҟазар	-8891
иачеслав	-8892
ныррақәа	-8893
▁амацара	-8894
▁аҭыжьра	-8895
▁қәҿиара	-8896
▁игәалаир	-8897
▁зҽаԥсазтәыз	-8898
▁Ҭырқәтәылаҟа	-8899
ерв	-8900
▁зин	-8901
антцәа	-8902
гылазаа	-8903
харақәа	-8904
▁амацәаз	-8905
▁атехника	-8906
▁дахьыҟоу	-8907
▁дхәыцуан	-8908
▁рыбжьқәа	-8909
▁ахәышҭаара	-8910
лои	-8911
▁акт	-8912
▁ҵҩа	-8913
▁Абна	-8914
газгьы	-8915
неилак	-8916
▁уеиԥш	-8917
▁абыржә	-8918
▁ирыҵар	-8919
▁умҳәан	-8920
▁хьымӡӷ	-8921
▁Жьҭаара	-8922
▁арахәыц	-8923
▁ахәмарра	-8924
кьыр	-8925
ҟьак	-8926
халаз	-8927
ӡамыз	-8928
▁икит	-8929
▁еизаз	-8930
▁иаҳәо	-8931
▁ирыма	-8932
▁шьҭыр	-8933
▁аниаҳа	-8934
▁еизара	-8935
▁ацәгьоу	-8936
▁иаҭахуп	-8937
▁ареспубликатә	-8938
џьиа	-8939
сҳәаз	-8940
ылара	-8941
ҭәеит	-8942
ҵарҭа	-8943
▁аетн	-8944
▁сыхә	-8945
напқәа	-8946
толиот	-8947
▁Дамеи	-8948
ологцәа	-8949
▁инаскь	-8950
▁Ҵәыџьба	-8951
▁аҳаскьын	-8952
▁ирыбзоураны	-8953
баи	-8954
кәар	-8955
лышь	-8956
фика	-8957
ҭыԥан	-8958
▁аӡәи	-8959
▁итәоу	-8960
хәаԥшын	-8961
▁арыцҳа	-8962
▁ашҭаҿы	-8963
▁амашәыр	-8964
▁имацара	-8965
▁Германиа	-8966
▁иарҳәеит	-8967
▁иџьшьоуп	-8968
▁диазҵааит	-8969
Гәы	-8970
▁Оз	-8971
▁апре	-8972
▁еицы	-8973
иашаны	-8974
хысуан	-8975
▁ампыл	-8976
▁инеиз	-8977
▁лхаҭа	-8978
▁убригьы	-8979
▁ҳалшоит	-8980
▁апоетцәа	-8981
▁шьыбжьон	-8982
каҷ	-8983
кьыԥ	-8984
чаԥа	-8985
шҭуа	-8986
▁кар	-8987
▁Ԥшь	-8988
ҭацәа	-8989
▁зықь	-8990
▁зҭаз	-8991
▁сзын	-8992
▁даҽак	-8993
хәмарра	-8994
▁Шәарах	-8995
▁анылба	-8996
▁иҿи	-8997
бааны	-8998
цаланы	-8999
▁исаҳа	-9000
ҟамлеит	-9001
▁иаҳнар	-9002
▁Чақырџьалы	-9003
▁дгәырӷьаҵәа	-9004
икыз	-9005
умыр	-9006
▁Мат	-9007
▁ҿыр	-9008
леиуа	-9009
ылман	-9010
▁нцәа	-9011
▁рсиа	-9012
▁руан	-9013
мҩахыҵ	-9014
цәыӡыз	-9015
▁ароль	-9016
▁еицәа	-9017
▁тонна	-9018
еиџьыка	-9019
▁азыҳәа	-9020
▁рхәыҷқәа	-9021
▁урысшәала	-9022
▁аусмҩаԥгатәқәа	-9023
мк	-9024
шҭын	-9025
▁Абы	-9026
▁лма	-9027
▁Ҳан	-9028
мақар	-9029
џьныр	-9030
▁ауҭра	-9031
гәаҟуаз	-9032
хырааны	-9033
▁ианала	-9034
▁шьыжьы	-9035
▁рааӡара	-9036
▁амаалықь	-9037
▁алахьынҵа	-9038
дыруазароуп	-9039
гуа	-9040
дор	-9041
Акыр	-9042
▁Кьы	-9043
▁еиҿы	-9044
▁лаҳа	-9045
Раԥхьа	-9046
шьашәа	-9047
ҳароуп	-9048
▁Санкт	-9049
▁ақәра	-9050
▁рҭынч	-9051
▁иҭыҵыз	-9052
▁шакәыз	-9053
гәыӷуеит	-9054
▁Ахадара	-9055
▁Ииашоуп	-9056
▁азныказ	-9057
▁аҭырқәа	-9058
▁азхәыцра	-9059
▁иреиӷьыз	-9060
▁ирдыруеит	-9061
▁реиҿкаара	-9062
зуа	-9063
сықә	-9064
хәаа	-9065
▁Ель	-9066
▁сбы	-9067
хьада	-9068
Аԥсуаа	-9069
изациа	-9070
▁Абжьа	-9071
▁хәҩык	-9072
бжышқәа	-9073
нагӡатә	-9074
ҟәымшәы	-9075
▁ашоура	-9076
▁ибзиан	-9077
▁рдунеи	-9078
▁ҳтәқәа	-9079
9,	-9080
ххны	-9081
▁ԥыз	-9082
бацои	-9083
саала	-9084
▁лҳәа	-9085
▁рыҵа	-9086
▁Алеқс	-9087
▁роума	-9088
▁қьаад	-9089
▁Аҩсҭаа	-9090
▁иагәыл	-9091
▁рзеиԥш	-9092
▁саҳаит	-9093
зхәыцуаз	-9094
▁адәқьан	-9095
▁рыдагьы	-9096
гӡаз	-9097
рыԥс	-9098
хәеи	-9099
▁Уар	-9100
осква	-9101
▁абыз	-9102
▁рҳәо	-9103
▁Ҟрым	-9104
аамҭаз	-9105
▁сымаӡам	-9106
▁еизааигәа	-9107
▁Аҭагылазаашьа	-9108
чу	-9109
лизм	-9110
хагьы	-9111
▁Сгәа	-9112
▁ахьры	-9113
▁исзым	-9114
▁ԥыхьа	-9115
▁аацәыр	-9116
▁арҵәаа	-9117
▁ирыцҳа	-9118
зыӡырҩыр	-9119
▁ҳашәҟәы	-9120
Петербург	-9121
▁ашәышықәсазы	-9122
мила	-9123
цәны	-9124
ԥсит	-9125
▁Шев	-9126
ыҩцәа	-9127
ҭахыу	-9128
▁Иԥсы	-9129
▁аиқә	-9130
▁сақә	-9131
▁ҳдыр	-9132
ԥшаауа	-9133
▁Автор	-9134
▁аарԥш	-9135
▁акаҳуа	-9136
▁арбаӷь	-9137
▁еиҳауп	-9138
▁имҩаԥи	-9139
цәымшәан	-9140
▁алшарақәа	-9141
зҵааит	-9142
▁Мсыгә	-9143
▁даасы	-9144
▁иақәи	-9145
▁атәанча	-9146
▁ахәҭақәа	-9147
зеилымкаауа	-9148
▁абиԥарақәа	-9149
▁асасааирҭа	-9150
▁Ҵы	-9151
лаҳа	-9152
▁сам	-9153
кылом	-9154
▁дсыз	-9155
гахьаз	-9156
лахьан	-9157
▁бааԥсы	-9158
▁сеидру	-9159
▁афинанс	-9160
▁иақәиҭу	-9161
▁анаҩсгьы	-9162
▁Кавказтәи	-9163
нт	-9164
Шәы	-9165
нап	-9166
тал	-9167
Аӡәы	-9168
ассы	-9169
игәы	-9170
тәар	-9171
хысра	-9172
▁асыр	-9173
ԥсахуа	-9174
▁акино	-9175
ҩаԥысуа	-9176
▁ҭауади	-9177
ҭазаареи	-9178
ҿиарақәа	-9179
▁амузыка	-9180
▁Виачеслав	-9181
дум	-9182
шҭыр	-9183
ԥҳәа	-9184
ҭалаз	-9185
ектқәа	-9186
▁ииҩыз	-9187
гылахьан	-9188
▁азхаҵара	-9189
▁ахьгылаз	-9190
▁иҟаиҵеит	-9191
▁апрезидент	-9192
▁автомашьына	-9193
”,	-9194
рыӡ	-9195
овка	-9196
▁Ира	-9197
▁рԥа	-9198
гресс	-9199
мышьҭ	-9200
▁2016	-9201
Ажәҩан	-9202
▁убоит	-9203
▁икабинет	-9204
▁аӷь	-9205
▁Абзиа	-9206
▁аашьҭ	-9207
▁иахьры	-9208
▁дааиуан	-9209
▁еиҳабыс	-9210
▁иҭаххеит	-9211
▁Реилазаара	-9212
▁(2	-9213
▁сп	-9214
пион	-9215
▁Маи	-9216
▁ақь	-9217
▁дҿа	-9218
▁усы	-9219
сҭеит	-9220
▁Абан	-9221
▁ааӡа	-9222
▁дхьа	-9223
ҳәареи	-9224
▁маҷуп	-9225
хәышәтә	-9226
▁Шықәсы	-9227
▁сахьар	-9228
▁информа	-9229
▁Аԥсабара	-9230
▁рыҷкәынцәа	-9231
▁ирыдыркылеит	-9232
—1	-9233
еор	-9234
ҭааз	-9235
▁рыҭ	-9236
жьырц	-9237
ҭакуп	-9238
▁Еиҳа	-9239
▁ҟаҵо	-9240
▁Еиқәа	-9241
▁зманы	-9242
▁Ҭаниа	-9243
▁амҩатә	-9244
▁ақьабз	-9245
▁ииҭаху	-9246
▁иусқәа	-9247
▁Ҵабырг	-9248
▁Хымԥада	-9249
▁иҵаҩцәа	-9250
гьежьуеит	-9251
ҵозеи	-9252
ӡааит	-9253
▁Ауаҩ	-9254
▁абаз	-9255
▁длыз	-9256
шәареи	-9257
▁амзыз	-9258
▁аҳаса	-9259
▁иуҳәо	-9260
▁ицаны	-9261
▁Иҟалаз	-9262
▁абзиеи	-9263
▁иалхны	-9264
▁атуризм	-9265
▁иабџьар	-9266
▁ыҟамкәа	-9267
▁Светлана	-9268
▁хатәгәаԥхарала	-9269
шыр	-9270
араз	-9271
кәара	-9272
рызеи	-9273
хәгьы	-9274
шьатә	-9275
▁иҵау	-9276
сҭақәа	-9277
▁Симон	-9278
зхәыцуа	-9279
▁Ҭемраз	-9280
▁рхадацәа	-9281
▁мҩаԥигеит	-9282
▁рҩымҭақәа	-9283
овски	-9284
ӷьырак	-9285
▁дыруа	-9286
▁ишықә	-9287
▁хьӡыс	-9288
Ашьҭахь	-9289
▁сыздырам	-9290
▁иаҳԥылоит	-9291
џьынџьтәылатәи	-9292
ҩхаа	-9293
▁азу	-9294
▁арс	-9295
▁ҩыз	-9296
▁сыман	-9297
▁Саҭбеи	-9298
▁аӡбамҭа	-9299
▁иаҳәоит	-9300
▁ирҿиара	-9301
▁алирикатә	-9302
▁амҳаџьырра	-9303
иӡ	-9304
чба	-9305
араа	-9306
доит	-9307
мҭоу	-9308
▁Гаг	-9309
▁Иша	-9310
қьабз	-9311
▁Лаша	-9312
▁азым	-9313
▁илоу	-9314
иазҵаа	-9315
▁ассир	-9316
цәырҵыз	-9317
▁ачҳара	-9318
▁иашьеи	-9319
гылаҩцәа	-9320
редактор	-9321
ырхаҵара	-9322
мыҟә	-9323
▁Иеи	-9324
▁ихан	-9325
чмазаҩ	-9326
▁Уимоу	-9327
▁аԥсҟы	-9328
▁изааи	-9329
▁аҵкьыс	-9330
нахысгьы	-9331
қәымгәыӷ	-9332
▁мҩаԥган	-9333
▁ианыҟала	-9334
▁миллиард	-9335
▁ахырхарҭақәа	-9336
Аӡ	-9337
хла	-9338
диса	-9339
лҵон	-9340
хҳәа	-9341
ӡәӡә	-9342
кәшан	-9343
▁закә	-9344
▁иаку	-9345
▁анахь	-9346
▁еимар	-9347
▁иԥсра	-9348
▁аоппоз	-9349
▁иазыҟа	-9350
▁a	-9351
таз	-9352
глыз	-9353
▁диц	-9354
▁ибжь	-9355
шьартә	-9356
ырҭеит	-9357
ҳазшәа	-9358
▁Ахаҵа	-9359
▁иналы	-9360
▁шәҟәык	-9361
Уажәшьҭа	-9362
▁аремонт	-9363
▁асоциал	-9364
▁акымзарак	-9365
▁даагылеит	-9366
▁рыдыркылеит	-9367
Хы	-9368
каиа	-9369
коуп	-9370
хьит	-9371
галак	-9372
ҟаиҵа	-9373
ҟәаҿы	-9374
▁анын	-9375
▁зыхә	-9376
ӷәӷәан	-9377
▁Аршба	-9378
▁далам	-9379
лафахәы	-9380
▁дшаҿыз	-9381
иргылеит	-9382
▁инықәыр	-9383
ҿцәажәара	-9384
▁акоммуни	-9385
▁ирдыруан	-9386
ҭҭ	-9387
хыуп	-9388
ҿырҭ	-9389
▁Гам	-9390
зцара	-9391
▁рзыр	-9392
▁сдыр	-9393
тәалан	-9394
▁ҳрыла	-9395
ҭашәара	-9396
▁аагара	-9397
▁уаԥхьа	-9398
▁шьарда	-9399
ԥшаауеит	-9400
▁Дадрыҟәа	-9401
▁Алитература	-9402
▁апрокуратура	-9403
бит	-9404
▁рд	-9405
▁Иаз	-9406
тради	-9407
▁авид	-9408
▁аиӷь	-9409
гатәуп	-9410
▁Роман	-9411
▁Ԥыҭрак	-9412
▁аизҳара	-9413
▁иаахтны	-9414
▁ԥырхага	-9415
▁Аиҳабыра	-9416
▁издыруаз	-9417
7-	-9418
хыԥ	-9419
ечен	-9420
▁сиа	-9421
▁цон	-9422
закны	-9423
тақәа	-9424
▁Иацы	-9425
▁ӡыхь	-9426
▁измаз	-9427
ологиеи	-9428
хәаԥшны	-9429
▁Жьиԥҳа	-9430
▁ахьхьа	-9431
▁ашәарах	-9432
мадарақәа	-9433
Аԥсҭазаара	-9434
▁ахьыԥшымра	-9435
Дад	-9436
ԥшқа	-9437
▁Гыц	-9438
лахҿы	-9439
▁дыҵа	-9440
▁иным	-9441
цәшәоз	-9442
▁Стефа	-9443
▁иҟамла	-9444
▁иреиуоу	-9445
▁адипломат	-9446
Шьы	-9447
▁35	-9448
иеса	-9449
хәыс	-9450
▁аки	-9451
ԥыруа	-9452
▁дзаа	-9453
▁бжаки	-9454
барҭоуп	-9455
ырхацәа	-9456
▁еизеит	-9457
▁иуҭаху	-9458
гәаԥхеит	-9459
▁Апроект	-9460
▁аадырԥшит	-9461
еив	-9462
▁Аль	-9463
▁рка	-9464
▁уҟа	-9465
ҳәҳәы	-9466
ӡаауа	-9467
наҵеит	-9468
▁жәаҩа	-9469
▁убриа	-9470
▁дуӡӡак	-9471
▁иаԥсоу	-9472
▁рҟнытә	-9473
▁иреиуаз	-9474
▁аамышьҭахь	-9475
▁аҽазыҟаҵарақәа	-9476
лл	-9477
▁аок	-9478
▁асаб	-9479
▁баба	-9480
▁уада	-9481
ҭыԥқәа	-9482
▁аказы	-9483
▁рҵара	-9484
▁ҳцоит	-9485
ҩызцәеи	-9486
▁абираҟ	-9487
▁диманы	-9488
▁Ҷыҭанаа	-9489
▁аныҳәатә	-9490
орус	-9491
ҩназ	-9492
уроуп	-9493
▁ушԥа	-9494
ециали	-9495
▁игоит	-9496
▁еиқәир	-9497
▁иӡбеит	-9498
▁пробле	-9499
▁риҭеит	-9500
▁шьаҿак	-9501
▁Қьалашьбеи	-9502
▁Ацҳаражәҳәарҭа	-9503
ҽра	-9504
▁Ви	-9505
хиоу	-9506
▁рзи	-9507
хашәа	-9508
шьхәа	-9509
▁аинф	-9510
▁аԥҭа	-9511
▁иҿыр	-9512
занааҭ	-9513
мамкәа	-9514
ылҵеит	-9515
ҽаныза	-9516
▁бзанҵы	-9517
▁бџьарла	-9518
▁абаталион	-9519
▁Аконституциа	-9520
▁агуманитартә	-9521
фоит	-9522
шьуп	-9523
▁Заа	-9524
парат	-9525
▁уакә	-9526
▁аиуит	-9527
▁рбеит	-9528
▁аҩсҭаа	-9529
▁гәышьа	-9530
гыломызт	-9531
▁нагӡаны	-9532
▁Ԥхынҷкәын	-9533
▁аԥсшьаҩцәа	-9534
▁ажәытәӡатәи	-9535
уша	-9536
шҭны	-9537
шәҟә	-9538
қәыӡ	-9539
▁Ады	-9540
▁Дук	-9541
▁Амар	-9542
▁ашәи	-9543
▁шьап	-9544
▁абаза	-9545
▁абанк	-9546
▁ашаха	-9547
▁закәи	-9548
▁сызҿу	-9549
ызаалак	-9550
ҵәрақәа	-9551
▁хараӡа	-9552
▁дрыманы	-9553
▁аԥшьбатәи	-9554
ҩак	-9555
▁рыш	-9556
баӡом	-9557
неины	-9558
▁Ԥсоу	-9559
▁Аныҳәа	-9560
▁шәҟәыҩ	-9561
▁Ҳазшаз	-9562
▁адныҳәа	-9563
▁аӷбақәа	-9564
хьазаарын	-9565
▁ашықәсан	-9566
▁ишааиуаз	-9567
▁архәҭақәа	-9568
▁еиԥшымкәа	-9569
▁иҿааихеит	-9570
ԥмырҟьаӡакәа	-9571
ra	-9572
пал	-9573
▁сҟа	-9574
сыбжь	-9575
▁Ажур	-9576
▁Егьа	-9577
шьапык	-9578
▁ауааи	-9579
шәаргьы	-9580
▁Џьонуа	-9581
▁Амилаҭ	-9582
▁дтәоуп	-9583
▁иаҳаит	-9584
иурҭақәа	-9585
▁анысҳәа	-9586
▁ихымҩаԥгашьа	-9587
џы	-9588
***	-9589
ока	-9590
бажә	-9591
шьал	-9592
ӡарц	-9593
▁цҳа	-9594
театр	-9595
▁ҳзым	-9596
ҳәашаз	-9597
▁Москв	-9598
▁аџьма	-9599
▁ихаан	-9600
▁рылар	-9601
▁Фазиль	-9602
▁лаԥшыла	-9603
▁афилологиатә	-9604
ге	-9605
Сыз	-9606
дын	-9607
заз	-9608
▁уҳа	-9609
▁аҭаа	-9610
гақәеи	-9611
▁амгәа	-9612
▁данца	-9613
▁шамоу	-9614
ҭанкыла	-9615
▁исахьа	-9616
▁сшьапы	-9617
▁шәахәа	-9618
▁адоуҳатә	-9619
▁аҳамҭақәа	-9620
▁Аҵыхәтәаны	-9621
▁ихәыцрақәа	-9622
93	-9623
Ани	-9624
▁ҟы	-9625
рҭаз	-9626
хары	-9627
▁Бер	-9628
▁ԥна	-9629
хаара	-9630
ԥышәа	-9631
▁зхоу	-9632
▁Донец	-9633
▁Чачха	-9634
▁аҭыԥан	-9635
ԥхьаӡеит	-9636
▁акәмызт	-9637
ҵҟала	-9638
ҵәаӡа	-9639
▁абаҩ	-9640
▁сымч	-9641
▁игәҭа	-9642
хынҳәуа	-9643
уеижьҭеи	-9644
қьырсиан	-9645
▁алархәны	-9646
тны	-9647
махь	-9648
қәыс	-9649
ҟәац	-9650
▁Асы	-9651
былуа	-9652
гашаз	-9653
гәҭас	-9654
хәарц	-9655
▁Исыз	-9656
▁Лука	-9657
ҵаргьы	-9658
хьоугьы	-9659
ҵахьеит	-9660
▁Ахԥатәи	-9661
▁ашәышықәсақәа	-9662
теи	-9663
аныс	-9664
ҭарк	-9665
хьчон	-9666
▁агыр	-9667
налист	-9668
шәартә	-9669
▁Иагьа	-9670
▁Мамоу	-9671
▁Наала	-9672
▁изаам	-9673
▁иреиӷь	-9674
▁маҵура	-9675
▁рымаҭәа	-9676
▁агәрагара	-9677
▁аԥшаҳәаҿы	-9678
▁ҳәамҭақәа	-9679
▁Афедералтә	-9680
▁арежиссиор	-9681
▁республика	-9682
▁аиқәыршәара	-9683
мҭеи	-9684
ҵатәуп	-9685
▁сышҟа	-9686
ԥхьаӡаз	-9687
▁изааигәа	-9688
▁машьынак	-9689
▁наиргеит	-9690
▁алҵшәақәа	-9691
аназ	-9692
цәӡа	-9693
Избан	-9694
ҭуеит	-9695
▁Аԥҭа	-9696
▁ԥшқа	-9697
ӡаанӡа	-9698
▁Антон	-9699
▁аӡбра	-9700
▁амҩала	-9701
▁аҩнаҭа	-9702
▁Ҭенгиз	-9703
▁изымдыр	-9704
▁Абрыскьыл	-9705
▁акоронавирустә	-9706
дура	-9707
ҟәит	-9708
▁иси	-9709
кәаша	-9710
▁шала	-9711
▁рпоет	-9712
▁ҳашҭа	-9713
бзоуроу	-9714
▁дахьыр	-9715
▁рлымҳа	-9716
▁ԥшааны	-9717
▁аповест	-9718
▁ишьамхы	-9719
▁Иусбарҭа	-9720
▁ашьҭыхра	-9721
▁ддәықәлеит	-9722
аӡәи	-9723
хьына	-9724
▁аҭӡы	-9725
▁илаз	-9726
▁ажәеи	-9727
▁архив	-9728
▁даман	-9729
▁ишиашоу	-9730
▁мышқәак	-9731
ԥынкыланы	-9732
▁аԥышәара	-9733
▁дааччеит	-9734
зеилымкааит	-9735
▁даақәыԥсыч	-9736
▁афымцалашара	-9737
За	-9738
иак	-9739
кна	-9740
ҽит	-9741
кәшо	-9742
▁рыг	-9743
галон	-9744
ылаԥш	-9745
▁дҩеи	-9746
▁Ерман	-9747
▁Иажәа	-9748
▁игыла	-9749
▁иҩуан	-9750
▁ҳцеит	-9751
баӷәаза	-9752
▁Басиаҭ	-9753
▁Пушкин	-9754
▁иалахә	-9755
▁лыхцәы	-9756
▁ҟаимаҭ	-9757
▁гәҩарас	-9758
▁шакәугьы	-9759
▁ахәаԥшцәа	-9760
▁сҿынасхеит	-9761
ҳҵо	-9762
▁асан	-9763
▁ауал	-9764
▁налы	-9765
гәхьаа	-9766
▁аурок	-9767
есторан	-9768
зырҳара	-9769
▁ҟалашьа	-9770
▁Рминистр	-9771
▁здыруада	-9772
▁иқәгылоу	-9773
▁Алеқсандр	-9774
▁есқьынгьы	-9775
▁ԥхьаҟатәи	-9776
Ихы	-9777
кык	-9778
▁ев	-9779
кәеи	-9780
лакә	-9781
ҿыха	-9782
▁Кас	-9783
▁диҿа	-9784
аалықь	-9785
ӷәӷәон	-9786
▁анапх	-9787
▁ахәыц	-9788
▁газеҭ	-9789
▁диман	-9790
▁еилыл	-9791
дгылара	-9792
хыбжьон	-9793
▁ныҟәара	-9794
▁ззымдыруа	-9795
▁амаҭәарқәа	-9796
▁дааҭгылеит	-9797
▁Қырҭтәылеи	-9798
▁аҭҵаарадырратә	-9799
ОН	-9800
баҳ	-9801
▁Ҷа	-9802
хаҩы	-9803
хымш	-9804
ҿтәи	-9805
ҟароу	-9806
ҵысра	-9807
▁ибеи	-9808
▁лбаа	-9809
гӡакәа	-9810
ларатә	-9811
▁ҳаила	-9812
▁ҳамоу	-9813
▁ҳаҿуп	-9814
▁Арсана	-9815
▁ларҟәны	-9816
▁иуԥылоит	-9817
▁ирҿиамҭақәа	-9818
вс	-9819
ык	-9820
пар	-9821
лымӡ	-9822
▁Зос	-9823
жьеит	-9824
ччара	-9825
▁иуит	-9826
▁иҳыит	-9827
▁иҳәарц	-9828
▁хҭысқәа	-9829
мз	-9830
орф	-9831
▁Аԥа	-9832
▁Мыр	-9833
▁ушы	-9834
▁2017	-9835
▁иада	-9836
бахьаз	-9837
▁Папас	-9838
▁дырхы	-9839
▁лышҟа	-9840
ҩналеит	-9841
▁нациҵеит	-9842
▁аибашьраан	-9843
▁апрофессор	-9844
Мак	-9845
иут	-9846
▁Ӷәа	-9847
▁Дима	-9848
▁дзеи	-9849
шьҭуам	-9850
ӡырҩуа	-9851
▁аилак	-9852
▁иааҵа	-9853
ентиабр	-9854
тәараҿы	-9855
▁аԥынҵа	-9856
▁активла	-9857
▁анаҩстәи	-9858
▁аԥышәарақәа	-9859
ҩаа	-9860
хреи	-9861
жьуан	-9862
хынтә	-9863
▁згым	-9864
▁рыди	-9865
▁ҳаан	-9866
анагоз	-9867
▁Ааԥын	-9868
▁Вадим	-9869
▁азнеи	-9870
▁дақәиҭ	-9871
▁усеиԥш	-9872
▁анаҩсан	-9873
▁аԥхьарца	-9874
▁здырхуада	-9875
зыҟаҵарақәа	-9876
▁аколлектив	-9877
ҵха	-9878
▁Вит	-9879
▁Аҵла	-9880
▁Шьаҟ	-9881
▁архе	-9882
▁лыма	-9883
▁сзеи	-9884
чыбжьа	-9885
џьбара	-9886
ҟарҵоз	-9887
▁игәыр	-9888
▁Ақаҩба	-9889
▁амҽхак	-9890
▁ирбеит	-9891
▁палата	-9892
▁анхарҭа	-9893
ҽанӡамкәа	-9894
▁иқәгылара	-9895
▁аицәажәара	-9896
▁рацәыхьчаразы	-9897
сып	-9898
▁қь	-9899
ҳәҳәоз	-9900
ҵахоит	-9901
хәаԥшыр	-9902
▁еизаны	-9903
▁иаԥсам	-9904
▁дыргеит	-9905
▁Џьгьарда	-9906
▁аибашьҩы	-9907
▁ахәыцрақәа	-9908
▁ҳаибашьцәа	-9909
▁ргәалашәара	-9910
▁ашколхәыҷқәа	-9911
▁рхымҩаԥгашьа	-9912
ҭк	-9913
ром	-9914
хәам	-9915
хәыт	-9916
ҩоуп	-9917
▁агь	-9918
қәашь	-9919
▁аҽада	-9920
▁ацаҟьа	-9921
▁даарыл	-9922
▁амшцәгьа	-9923
▁ԥсадгьыл	-9924
стә	-9925
▁Ло	-9926
▁Уеи	-9927
кызар	-9928
стқәа	-9929
хьааи	-9930
ҭҵааҩ	-9931
Ажәакала	-9932
▁ахықәкы	-9933
▁иааиуан	-9934
▁рабџьар	-9935
▁иҟанаҵаз	-9936
▁машәыршәа	-9937
ҳәи	-9938
оним	-9939
▁бас	-9940
▁уша	-9941
Апоет	-9942
зыҟам	-9943
▁Маҷк	-9944
▁Нина	-9945
▁еихы	-9946
▁план	-9947
ранцыз	-9948
мҭақәеи	-9949
▁аџьыка	-9950
▁аԥсыуа	-9951
▁еишьҭа	-9952
▁иаамҭа	-9953
▁инхеит	-9954
▁ирҭеит	-9955
▁ихабар	-9956
▁адунеиаҿ	-9957
▁еибашьцәа	-9958
▁ҵараиурҭа	-9959
лыла	-9960
наӡе	-9961
фатә	-9962
▁Ацә	-9963
изнес	-9964
▁Дахь	-9965
▁дгәы	-9966
ҵазгьы	-9967
▁радио	-9968
намӡара	-9969
хынҳәын	-9970
▁амцабз	-9971
▁дыԥшуан	-9972
▁иҭоурых	-9973
▁ақәыџьма	-9974
▁еилыскааит	-9975
Ахьӡ	-9976
▁Быр	-9977
▁зҿа	-9978
▁ҿаа	-9979
▁гоит	-9980
▁акрыр	-9981
▁қыҭак	-9982
▁аиарҭа	-9983
▁кьыԥхь	-9984
▁мҳәакәа	-9985
▁дааԥышәыр	-9986
▁ибзиаӡаны	-9987
▁аррамаҵзура	-9988
кс	-9989
заҳ	-9990
мер	-9991
мбыл	-9992
▁Ҟаи	-9993
▁ацха	-9994
▁ацым	-9995
▁убар	-9996
ҟаҵаны	-9997
ԥшааны	-9998
▁илықә	-9999
▁ашәқәа	-10000
▁аԥшыхә	-10001
▁изхара	-10002
▁партиа	-10003
леижьҭеи	-10004
▁иақәшәо	-10005
▁ҳалагеит	-10006
▁азҿлымҳара	-10007
▁ашәаԥыџьаԥ	-10008
▁амҵәыжәҩақәа	-10009
лс	-10010
вит	-10011
Уаҟа	-10012
▁Аӷа	-10013
кадуа	-10014
џьқәа	-10015
ҽхана	-10016
▁Гиви	-10017
▁амҵа	-10018
▁иҳам	-10019
▁Тамшь	-10020
▁апарт	-10021
▁дааир	-10022
дәылҵын	-10023
▁дышьҭа	-10024
▁ихааӡа	-10025
▁уантәи	-10026
▁Алексеи	-10027
▁еиқәдыр	-10028
▁бааԥсқәа	-10029
▁еидызкыло	-10030
▁шықәсанӡа	-10031
▁Ауаажәларратә	-10032
ылан	-10033
Ҽнак	-10034
ҿыӷь	-10035
▁шра	-10036
қьоуп	-10037
▁иҭаа	-10038
▁март	-10039
▁ацәым	-10040
▁игәеи	-10041
▁руакы	-10042
ԥшылара	-10043
▁ӡбарҭа	-10044
▁бзиарак	-10045
▁шәарыцара	-10046
▁Ажьырныҳәа	-10047
▁Аҩныҵҟатәи	-10048
Дыз	-10049
уро	-10050
фаз	-10051
▁ҳаҩ	-10052
гәаҟра	-10053
зырхаз	-10054
▁аихьӡ	-10055
▁уаҩын	-10056
▁иҟынӡа	-10057
▁рҟазшьа	-10058
▁еидкыланы	-10059
ныс	-10060
ҿоу	-10061
арха	-10062
▁Лом	-10063
▁Уан	-10064
▁аиц	-10065
▁зцу	-10066
швили	-10067
▁Аҳәа	-10068
▁Хада	-10069
▁ажьы	-10070
▁ицхыраа	-10071
▁еилкаауп	-10072
ех	-10073
ԥшәы	-10074
ылхын	-10075
▁Нури	-10076
▁акар	-10077
▁изин	-10078
чыбжьык	-10079
▁рацәаҩ	-10080
ҳаракгьы	-10081
▁адәныҟа	-10082
▁авариант	-10083
есу	-10084
цки	-10085
шыз	-10086
▁лҿ	-10087
Ахра	-10088
вард	-10089
▁..»	-10090
ызлан	-10091
▁абок	-10092
▁дмаа	-10093
▁зыҟа	-10094
▁рыцә	-10095
▁Сыԥсы	-10096
▁абара	-10097
▁аԥацәа	-10098
▁иааӡаз	-10099
▁уаҩҵас	-10100
қәгәыӷуа	-10101
▁аихагыла	-10102
▁анҵәамҭа	-10103
▁маҭәашьар	-10104
▁ахархәагақәа	-10105
џьи	-10106
шьма	-10107
▁Сым	-10108
бжьаз	-10109
▁мзыз	-10110
дыруоу	-10111
ырхаха	-10112
▁абыжь	-10113
▁иалам	-10114
▁ианым	-10115
▁ҳанеи	-10116
ҳәаӡеит	-10117
▁ихьӡын	-10118
▁рҵыхәа	-10119
▁ԥхыӡла	-10120
▁Геннади	-10121
▁аперсонаж	-10122
сал	-10123
ста	-10124
зина	-10125
▁еизы	-10126
▁илир	-10127
▁агәыл	-10128
▁лыманы	-10129
▁Алашара	-10130
▁абылтәы	-10131
▁рҭыԥқәа	-10132
▁игәаӷьны	-10133
▁амузыкатә	-10134
ЕС	-10135
ҟеи	-10136
Шаҟа	-10137
лшоз	-10138
▁Кол	-10139
ҟәаны	-10140
▁Аџьын	-10141
▁аханы	-10142
▁иқәна	-10143
ааиуеит	-10144
шьароуп	-10145
▁аҳасаб	-10146
▁аӡахәа	-10147
▁идгьыл	-10148
▁кажьны	-10149
▁Ақырҭуа	-10150
▁милаҭтә	-10151
▁рыҭҵаара	-10152
▁ҷыдарақәа	-10153
▁ааныркылеит	-10154
џа	-10155
ҽҽ	-10156
▁Қа	-10157
итор	-10158
ҳазы	-10159
▁ҭан	-10160
▁Аҭак	-10161
▁Дени	-10162
▁ныҟә	-10163
▁узҿу	-10164
▁ахьтә	-10165
▁аӡбаҩ	-10166
▁ианыс	-10167
шәазшәа	-10168
▁дрыман	-10169
▁ацәгьеи	-10170
▁аҳҭынра	-10171
▁апоезиатә	-10172
қу	-10173
иԥеи	-10174
ҭиит	-10175
ԥсам	-10176
▁алу	-10177
▁дуа	-10178
▁жьы	-10179
тоном	-10180
чмаза	-10181
ҭамыз	-10182
ԥылоз	-10183
ԥылон	-10184
▁иқәи	-10185
рақәак	-10186
▁ибаҟа	-10187
▁Араион	-10188
▁ишьҭоу	-10189
▁лашьца	-10190
▁Франциа	-10191
▁агоспиталь	-10192
▁далацәажәеит	-10193
аки	-10194
тик	-10195
фан	-10196
втор	-10197
лмыр	-10198
ҳәса	-10199
▁Ҳар	-10200
хтанг	-10201
▁амиф	-10202
▁аԥыз	-10203
▁игаз	-10204
▁ҩнык	-10205
▁ҿыцк	-10206
ҭароуп	-10207
ҵәацәа	-10208
ԥсахыз	-10209
▁иааим	-10210
ҵәҟьеит	-10211
▁иашьҭа	-10212
лармониа	-10213
▁акыргьы	-10214
▁аныҳәара	-10215
▁сгәанала	-10216
▁абзоурала	-10217
▁ҳџьынџьуаа	-10218
еқ	-10219
жьо	-10220
пап	-10221
▁Иҵ	-10222
всны	-10223
злоу	-10224
▁сра	-10225
моуит	-10226
▁база	-10227
▁шәкы	-10228
▁иахьаа	-10229
▁ишаҿыз	-10230
шьыбжьон	-10231
▁Жәабран	-10232
зааигәаха	-10233
▁иааиуеит	-10234
▁иалҳәеит	-10235
▁иалхрақәа	-10236
ии	-10237
▁V	-10238
шны	-10239
▁ԥын	-10240
быреи	-10241
▁Анна	-10242
▁ахеи	-10243
▁дзыз	-10244
▁дрым	-10245
▁ҭаха	-10246
гәаԥха	-10247
▁Артур	-10248
▁Крист	-10249
▁акурс	-10250
▁астра	-10251
▁днаҵа	-10252
▁аҵеицәа	-10253
▁ажәакала	-10254
▁апроектқәа	-10255
":	-10256
▁крит	-10257
ҵәахит	-10258
▁килом	-10259
шәшәаны	-10260
▁Хәымса	-10261
▁гылоуп	-10262
▁икьыԥхь	-10263
▁шиакәыз	-10264
илософиатә	-10265
▁аихшьаала	-10266
▁Аԥсынтәыла	-10267
▁аԥсахрақәа	-10268
▁шьаҭанкыла	-10269
▁хыԥхьаӡарала	-10270
сам	-10271
хәт	-10272
▁()	-10273
цәас	-10274
ҭәаз	-10275
▁ЕАА	-10276
аруаҭ	-10277
иссар	-10278
ферен	-10279
хыҵыз	-10280
ҳәыԥш	-10281
▁зныз	-10282
▁узеи	-10283
▁уцәа	-10284
▁дныҵа	-10285
▁излаз	-10286
▁иҵара	-10287
▁ргәыр	-10288
▁хәыҷи	-10289
▁ахҳәаа	-10290
▁аччара	-10291
▁змаӡам	-10292
▁иаҳзеи	-10293
▁алаӷырӡ	-10294
ыло	-10295
тәаа	-10296
▁Ита	-10297
▁Ажәы	-10298
▁дсыр	-10299
мҭакәа	-10300
▁араса	-10301
▁иуеит	-10302
▁санду	-10303
▁ҳааит	-10304
▁Аԥсырҭ	-10305
▁анализ	-10306
▁исахьар	-10307
▁Уажәраанӡа	-10308
▁зехьынџьара	-10309
▁Уы	-10310
ԥшеи	-10311
ылоит	-10312
ҽаныз	-10313
ԥшаан	-10314
▁Изра	-10315
▁Кәарц	-10316
▁инхон	-10317
▁иԥаҵа	-10318
▁Асҭана	-10319
▁Кәакәа	-10320
▁иҟаиҵо	-10321
▁Аԥсынра	-10322
▁аҵиаақәа	-10323
▁инеиҵыху	-10324
▁аилкааразы	-10325
▁аполковник	-10326
▁II	-10327
Игәы	-10328
лазы	-10329
ччоз	-10330
тациа	-10331
▁саит	-10332
рактор	-10333
халоит	-10334
▁Афонд	-10335
▁хҭыск	-10336
▁шьҭыз	-10337
▁џьоук	-10338
▁абааԥс	-10339
▁ҳақьым	-10340
▁гәырӷьа	-10341
▁дынхоит	-10342
▁рартист	-10343
▁уасҳәап	-10344
▁хьыӡқәа	-10345
▁аҳәынҵәа	-10346
▁иуадаҩуп	-10347
2-	-10348
иҭ	-10349
ген	-10350
ҭаҳ	-10351
иреи	-10352
лица	-10353
аигәа	-10354
▁Иҟан	-10355
▁ишан	-10356
▁Аҳәба	-10357
▁атраг	-10358
▁дрықә	-10359
▁мҩаԥи	-10360
▁сааҭк	-10361
шәымҵан	-10362
▁Еснагь	-10363
▁ацәқәа	-10364
ассаџьыр	-10365
▁амаҭәар	-10366
▁исгәала	-10367
▁Чачхалиа	-10368
▁арҵаҩратә	-10369
▁F	-10370
Нан	-10371
олк	-10372
чаа	-10373
ԥши	-10374
ерем	-10375
еакәа	-10376
харым	-10377
хкқәа	-10378
▁ачын	-10379
▁Аӡӷаб	-10380
▁алшон	-10381
▁бареи	-10382
▁хаала	-10383
▁Ҳагба	-10384
▁Габниа	-10385
▁игәыла	-10386
▁сыманы	-10387
▁хәымга	-10388
▁ажәытәан	-10389
▁ахьчаразы	-10390
▁ишьақәгылоу	-10391
уриа	-10392
ҵәит	-10393
▁аах	-10394
аахыс	-10395
ымзар	-10396
ҿаԥшы	-10397
▁злар	-10398
▁иацәы	-10399
шьаратә	-10400
ҩангага	-10401
▁Ларгьы	-10402
▁Мамсыр	-10403
▁дтәаны	-10404
▁школқәа	-10405
▁акәасқьа	-10406
ԥхьагәаҭоуп	-10407
▁Аҩнуҵҟатәи	-10408
▁литератураҿы	-10409
Су	-10410
Кәа	-10411
бек	-10412
оло	-10413
алас	-10414
анна	-10415
▁Џьы	-10416
▁злы	-10417
▁иҟә	-10418
▁хыҵ	-10419
ангыл	-10420
хашьа	-10421
▁Цқьа	-10422
▁ихыз	-10423
▁Мшәан	-10424
▁иашәа	-10425
▁лҳәон	-10426
▁ҩымҭа	-10427
рызхәыц	-10428
ҭаххеит	-10429
▁анацәа	-10430
▁дааныр	-10431
▁снеины	-10432
▁зҵазкуа	-10433
▁лҭаацәа	-10434
▁ҭырхаха	-10435
▁џьаҳаным	-10436
▁аҳаракыра	-10437
▁ишьақәнар	-10438
▁мҳәаӡакәа	-10439
▁рҿаархеит	-10440
пп	-10441
хәым	-10442
▁быш	-10443
▁џьи	-10444
ҩызан	-10445
ҭшьаа	-10446
ԥырҵит	-10447
▁еиҟәы	-10448
▁усоуп	-10449
▁хаҵеи	-10450
лашәара	-10451
лыргеит	-10452
цәгьара	-10453
қәтәеит	-10454
▁англыз	-10455
▁ҳәарас	-10456
▁иҵәахны	-10457
▁иӷәӷәаны	-10458
▁реиҳарак	-10459
▁атуристтә	-10460
Хәы	-10461
▁//	-10462
Ашьа	-10463
изан	-10464
имҵа	-10465
▁Аӡә	-10466
▁сыҭ	-10467
лазыр	-10468
▁ираа	-10469
▁Ҳашы	-10470
лҵуеит	-10471
шәааит	-10472
▁анбан	-10473
▁сышԥа	-10474
еиԥшьаа	-10475
шәаратә	-10476
▁архәҭа	-10477
тәылатәи	-10478
▁акәадыр	-10479
▁раҳәшьа	-10480
▁рыдкылара	-10481
▁ареволиуциа	-10482
Хьы	-10483
бам	-10484
рҭан	-10485
ҵәҟьо	-10486
▁ахыб	-10487
▁гәҭа	-10488
▁гәҭы	-10489
▁срыц	-10490
▁умҩа	-10491
мхакәа	-10492
▁Мураҭ	-10493
▁акәты	-10494
▁сыԥҳа	-10495
цәақәак	-10496
▁гәнаҳа	-10497
▁нызықь	-10498
▁рыҟәша	-10499
▁аҳәызба	-10500
қәгәыӷуаз	-10501
▁иҟалозар	-10502
нинг	-10503
раӡа	-10504
хшара	-10505
ҟәынд	-10506
▁дшаз	-10507
▁дыши	-10508
▁сацә	-10509
▁ааила	-10510
▁исзаа	-10511
▁иџьеи	-10512
▁хәшәы	-10513
вагыланы	-10514
▁ааԥынра	-10515
▁еиҿкаан	-10516
▁аԥсцәаҳа	-10517
▁умҳәозар	-10518
▁Папасқьыр	-10519
▁ахымҩаԥгашьа	-10520
▁литературатә	-10521
тәоз	-10522
шьҭны	-10523
џьегь	-10524
▁ижәы	-10525
▁илас	-10526
▁шәры	-10527
▁анаҟә	-10528
▁шәаны	-10529
▁аиҩхаа	-10530
▁аԥкрақәа	-10531
▁иидыруаз	-10532
▁иқәгылан	-10533
тан	-10534
кәма	-10535
хало	-10536
▁Хын	-10537
▁ӡык	-10538
окзал	-10539
октор	-10540
▁зана	-10541
▁ҟәыш	-10542
қәаҵәа	-10543
▁Озган	-10544
▁аџьаԥ	-10545
▁дныҟә	-10546
▁ишәыз	-10547
блицист	-10548
ҭоумҵан	-10549
▁ҟаиҵон	-10550
▁Уажәазы	-10551
▁агылара	-10552
▁алагала	-10553
▁амитинг	-10554
▁зеиԥшра	-10555
▁ианҵаны	-10556
▁ссирқәа	-10557
▁агәгәаҳәа	-10558
▁апрокурор	-10559
▁жәашықәса	-10560
▁уснагӡатәқәа	-10561
▁80	-10562
ҟеит	-10563
▁ачар	-10564
▁рзин	-10565
▁рымш	-10566
листтә	-10567
▁Хәыҷы	-10568
тәымкәа	-10569
▁Ароман	-10570
▁ақыҭахь	-10571
▁иԥҳәыси	-10572
▁лҩызцәа	-10573
▁рыӡбара	-10574
▁амандари	-10575
ҭыхымҭақәа	-10576
сыц	-10577
нары	-10578
цәак	-10579
ԥхон	-10580
гәгьы	-10581
хелиа	-10582
▁Џьар	-10583
▁лаԥш	-10584
▁рхьы	-10585
▁изакә	-10586
▁сҳәар	-10587
▁ухала	-10588
▁еицәоу	-10589
Избанзар	-10590
▁аиуразы	-10591
▁иаԥсоуп	-10592
▁хышықәса	-10593
▁иԥхьаӡаны	-10594
▁Ацәыргақәҵа	-10595
кыу	-10596
ызи	-10597
ԥра	-10598
▁Мед	-10599
арҵәы	-10600
▁идир	-10601
базшәа	-10602
хьымӡа	-10603
ҳараӡа	-10604
ҵахьаз	-10605
▁Аҟәеи	-10606
▁Вален	-10607
▁арҿиа	-10608
▁ацгәы	-10609
▁салам	-10610
▁уаҩуп	-10611
қәгылаз	-10612
▁адкыла	-10613
▁афицар	-10614
▁хаданы	-10615
▁аурысқәа	-10616
ԥҽы	-10617
▁ьы	-10618
ԥсҭа	-10619
оуроу	-10620
хашаз	-10621
▁аусхк	-10622
▁дугьы	-10623
▁дышры	-10624
дгыланы	-10625
спекциа	-10626
ҳәарада	-10627
▁Назира	-10628
▁дгьыли	-10629
▁дарбану	-10630
▁ҳҩызцәа	-10631
▁цәгьарак	-10632
▁иналаҵаны	-10633
▁аҟазшьақәа	-10634
▁ирылагӡаны	-10635
8-	-10636
кца	-10637
ԥиа	-10638
▁иж	-10639
хҟьа	-10640
▁ҵыр	-10641
бжьеи	-10642
зыҟаз	-10643
ԥшьаа	-10644
▁илыл	-10645
▁џьым	-10646
заратә	-10647
наҭеит	-10648
ҵазшәа	-10649
▁Синаҭ	-10650
▁иаала	-10651
▁музеи	-10652
ҳабацәа	-10653
▁адаҟьа	-10654
▁еиԥшуп	-10655
лазҵааит	-10656
▁Мактина	-10657
▁раԥҵара	-10658
▁хәыҷгьы	-10659
▁налаҵаны	-10660
▁агәаҳәара	-10661
▁Адунеизегьтәи	-10662
мда	-10663
Аԥсы	-10664
каӡа	-10665
скур	-10666
цәар	-10667
▁цыра	-10668
халаны	-10669
▁аради	-10670
▁иааҭи	-10671
▁Уаргьы	-10672
▁занааҭ	-10673
▁илымаз	-10674
▁иашьҭоу	-10675
▁ирҳәеит	-10676
ҽанызаара	-10677
▁академик	-10678
еншевикцәа	-10679
▁рҩыџьагьы	-10680
▁рашәарамза	-10681
▁ҳҳәынҭқарра	-10682
ӡи	-10683
АТО	-10684
виа	-10685
доз	-10686
лог	-10687
ҭәо	-10688
баса	-10689
мааи	-10690
наԥш	-10691
шарц	-10692
▁ҵит	-10693
билтә	-10694
▁ахыл	-10695
▁шҭоу	-10696
▁Ақырҭ	-10697
▁Иасон	-10698
▁дыцца	-10699
▁изқәа	-10700
▁иқәра	-10701
гәышьан	-10702
▁аамсҭа	-10703
▁иныҟәа	-10704
▁ԥҳәысс	-10705
▁закәытә	-10706
▁игыланы	-10707
▁ҳҳәозар	-10708
▁еиликааит	-10709
▁аҵараиурҭа	-10710
▁Ашәҟәыҩҩцәа	-10711
▁иарбанзаалак	-10712
▁инарықәыршәаны	-10713
АР	-10714
тр	-10715
рыжә	-10716
ҽҳәа	-10717
▁дуи	-10718
енева	-10719
нагьы	-10720
ҭыҵра	-10721
▁дкәа	-10722
▁икна	-10723
▁иҿыц	-10724
▁ԥара	-10725
▁рцәыр	-10726
▁Ҭамаз	-10727
▁асабша	-10728
▁каххаа	-10729
▁ҭанаҵы	-10730
▁иҟалазеи	-10731
▁акомандир	-10732
▁игәаанагара	-10733
▁го	-10734
енти	-10735
▁Дел	-10736
галар	-10737
таҳәа	-10738
шәахә	-10739
▁арак	-10740
▁гәын	-10741
▁уҟаз	-10742
ринцип	-10743
▁ажанр	-10744
▁дҟала	-10745
▁иеила	-10746
кәыршан	-10747
лукааша	-10748
џьмақәа	-10749
ҳәазгьы	-10750
▁уҳәеит	-10751
▁Вахтанг	-10752
▁иаразна	-10753
▁сзыҳәан	-10754
▁Аҭаҳмада	-10755
▁диижьҭеи	-10756
▁рзымдыруа	-10757
▁Рминистрра	-10758
▁ахәылбыҽха	-10759
▁еибашьраан	-10760
▁60	-10761
иркит	-10762
▁сагь	-10763
ансқәа	-10764
бацәеи	-10765
▁Лассы	-10766
▁акака	-10767
▁зымчу	-10768
▁избоз	-10769
▁ахәқәа	-10770
▁Иҳаҩсыз	-10771
▁иқәҵаны	-10772
▁азныказы	-10773
▁ихәыҷқәа	-10774
▁рацәаҩны	-10775
▁рышьҭахьҟа	-10776
▁әы	-10777
▁иҟь	-10778
гәамҵ	-10779
ессиа	-10780
хәага	-10781
▁Ақәа	-10782
▁саҿуп	-10783
кырақәа	-10784
▁Венесу	-10785
▁акәтаӷь	-10786
шьаргәыҵа	-10787
▁аарлаҳәа	-10788
▁издыруан	-10789
▁акультуреи	-10790
▁иадамзаргьы	-10791
▁Аде	-10792
▁ҿиҭ	-10793
▁Ӡиӡ	-10794
мшқәа	-10795
шозар	-10796
ҵасны	-10797
ԥшыхә	-10798
▁акит	-10799
▁амед	-10800
ҳәаӡом	-10801
▁апатр	-10802
▁дшәон	-10803
ныҟәоит	-10804
▁Ашәԥҳа	-10805
▁итәаны	-10806
хьазаргьы	-10807
▁аԥстәқәа	-10808
цәымыӷхеит	-10809
Бы	-10810
сиҭ	-10811
усҭа	-10812
хәом	-10813
▁уыс	-10814
харам	-10815
▁Лавр	-10816
▁қьаф	-10817
ҵараны	-10818
▁Аҩада	-10819
▁избон	-10820
▁ирзыр	-10821
▁ԥшьын	-10822
▁Васили	-10823
▁ирҭаху	-10824
▁рыхшыҩ	-10825
пхгаҩцәа	-10826
▁абаанда	-10827
▁аԥхарра	-10828
▁рыбзиабара	-10829
▁сыԥсадгьыл	-10830
▁апартизанцәа	-10831
миа	-10832
ҷын	-10833
лҵан	-10834
сиаҭ	-10835
ҵәар	-10836
хьази	-10837
▁амхы	-10838
▁иази	-10839
тәразы	-10840
цәырым	-10841
▁Марина	-10842
▁дрылан	-10843
дырамызт	-10844
дыргылаз	-10845
зыӡырҩуа	-10846
▁амахәқәа	-10847
▁ажәалагала	-10848
▁инеиԥынкыланы	-10849
ту	-10850
чар	-10851
▁он	-10852
бацо	-10853
▁жьа	-10854
▁Адәа	-10855
▁акрыф	-10856
▁игәыԥ	-10857
▁спорт	-10858
▁аусзуҩ	-10859
▁аҟәҟәа	-10860
пыҵахала	-10861
▁аҭахӡам	-10862
▁процесс	-10863
▁цәгьара	-10864
▁рыцҳарас	-10865
▁бызшәақәа	-10866
▁илахьынҵа	-10867
▁русеицура	-10868
Ашә	-10869
бах	-10870
быгә	-10871
раса	-10872
саби	-10873
Даара	-10874
▁Аҿар	-10875
▁аалы	-10876
▁абом	-10877
▁агаз	-10878
▁аӡым	-10879
▁злак	-10880
наҵоит	-10881
ԥсааит	-10882
▁ааира	-10883
▁алахь	-10884
▁шәықә	-10885
▁ҳнапы	-10886
ҳәсақәа	-10887
▁иаарыл	-10888
▁ирҳәон	-10889
ӡамҩақәа	-10890
▁ацәеижь	-10891
▁ихыҵуеит	-10892
▁ԥхашьара	-10893
▁Асахьаҭыхҩы	-10894
▁реиқәыршәара	-10895
мҵ	-10896
Иҭа	-10897
еан	-10898
шка	-10899
▁дә	-10900
Абыр	-10901
▁гон	-10902
▁сыҩ	-10903
▁амон	-10904
▁аҟыр	-10905
▁шәха	-10906
еамызт	-10907
зыԥшны	-10908
▁шәана	-10909
▁ҵаула	-10910
дтәалаз	-10911
ҵаӡакәа	-10912
▁иԥынҵа	-10913
▁ҭахеит	-10914
▁дыштәаз	-10915
▁қәҿиарала	-10916
▁иазгәаҭоуп	-10917
23	-10918
қам	-10919
▁Сақ	-10920
▁Рауф	-10921
▁аҟьа	-10922
▁аԥсҭ	-10923
▁иузы	-10924
▁Ушьҭа	-10925
▁Шьааб	-10926
▁еилыз	-10927
▁иааҳа	-10928
▁иубар	-10929
▁ҳасаб	-10930
гьежьын	-10931
ԥхьарца	-10932
▁ахьаца	-10933
▁илшоит	-10934
▁маҷӡам	-10935
▁Кәарцхь	-10936
▁рыҩнқәа	-10937
▁дақәшаҳаҭ	-10938
▁гәаанагара	-10939
▁ԥыҭраамҭак	-10940
▁аҿынанахеит	-10941
▁инарҵауланы	-10942
орк	-10943
моуа	-10944
▁Тра	-10945
дантә	-10946
жьуам	-10947
шәҳәа	-10948
▁Оҭар	-10949
лыркаа	-10950
▁апаци	-10951
▁ахыза	-10952
▁ахқәа	-10953
▁далан	-10954
▁дынка	-10955
▁митәы	-10956
▁арҭеит	-10957
▁ацаԥха	-10958
▁напыла	-10959
▁роуеит	-10960
андрыԥшь	-10961
▁рабацәа	-10962
▁изеиҭеиҳәеит	-10963
чо	-10964
рар	-10965
ԥыҩ	-10966
хәха	-10967
▁Тим	-10968
▁ҳәы	-10969
▁Рост	-10970
▁збон	-10971
▁зҵоу	-10972
галарц	-10973
▁дхәыҷ	-10974
▁ныжьны	-10975
▁шаҟаҩы	-10976
гьежьуаз	-10977
▁иалагаз	-10978
▁иҟаҵоуп	-10979
▁фырхаҵа	-10980
▁ԥшӡақәа	-10981
структура	-10982
▁ақәызҵаз	-10983
▁иааргеит	-10984
?!.	-10985
ԥуа	-10986
▁1,	-10987
бжьо	-10988
тата	-10989
▁сас	-10990
аауан	-10991
гаҩыс	-10992
гылеи	-10993
мысҭа	-10994
нестр	-10995
хәаӡа	-10996
шьҭеи	-10997
ԥшааз	-10998
▁ӡаны	-10999
▁хәыда	-11000
гаӡакәа	-11001
дтәалан	-11002
▁Урҭгьы	-11003
▁аҵәҵәа	-11004
▁иалагон	-11005
▁ахәшәқәа	-11006
▁уахәаԥшуазар	-11007
ҽын	-11008
итан	-11009
лбыҽ	-11010
ҟаиа	-11011
▁дац	-11012
▁иӡба	-11013
шьҭуан	-11014
▁Арԥыс	-11015
▁Аԥхын	-11016
▁Мзауҭ	-11017
▁гәала	-11018
▁днаид	-11019
▁игәаҟ	-11020
▁иҭаны	-11021
▁сышьҭа	-11022
▁изаҟара	-11023
▁рҿиамҭа	-11024
▁саауеит	-11025
▁ҟаиҵоит	-11026
▁иаанагон	-11027
▁дызусҭада	-11028
▁мҩаԥысуан	-11029
▁ахыԥхьаӡара	-11030
▁ирылацәажәеит	-11031
▁рхыԥхьаӡараҿы	-11032
▁кам	-11033
бжара	-11034
жәоит	-11035
царак	-11036
чҳакәа	-11037
▁Денис	-11038
▁иашам	-11039
▁маҷым	-11040
ызаҵәык	-11041
▁Аминаҭ	-11042
▁Аруҭан	-11043
▁аӷьара	-11044
▁ирҳәаз	-11045
▁хәыцра	-11046
рақәагьы	-11047
▁Шьаҟрыл	-11048
▁исыздыруам	-11049
ики	-11050
саҳа	-11051
ҳахә	-11052
▁ААУ	-11053
▁АШә	-11054
▁ззи	-11055
▁усс	-11056
хысны	-11057
шәахь	-11058
ызгоз	-11059
ҩнаҭа	-11060
ҵанар	-11061
▁убап	-11062
▁ҳзаа	-11063
анагаз	-11064
мыжьит	-11065
▁Аҳәаа	-11066
▁ианҭа	-11067
▁иреиҳа	-11068
▁ллымҳа	-11069
▁ацәашьы	-11070
▁дреиуан	-11071
▁иагәыла	-11072
▁Ашәҟәыҩҩы	-11073
.0	-11074
хш	-11075
’’	-11076
▁Иал	-11077
▁гьа	-11078
▁зыҽ	-11079
▁Ашәы	-11080
▁уҩны	-11081
ҵашьыц	-11082
▁ашьап	-11083
▁иныла	-11084
енергет	-11085
ританиа	-11086
▁ихахәы	-11087
▁ишьҭыр	-11088
▁џьбара	-11089
▁Белорус	-11090
▁Мсыгәда	-11091
▁аҟалара	-11092
▁сҭаацәа	-11093
▁инфекциа	-11094
▁рдоуҳатә	-11095
▁алхырҭатә	-11096
▁Ашәарҭадаратә	-11097
кате	-11098
тини	-11099
дырыз	-11100
жакьа	-11101
▁Азны	-11102
▁аҽыҩ	-11103
▁дхәа	-11104
▁Иаков	-11105
▁алоуп	-11106
хьаақәа	-11107
▁афильм	-11108
▁лҭахын	-11109
▁аҭынчреи	-11110
▁иасҳәеит	-11111
▁рыԥшаара	-11112
▁иудыруеит	-11113
етн	-11114
чра	-11115
ҭиа	-11116
бгаз	-11117
ҵәоуп	-11118
▁Шара	-11119
▁ираз	-11120
▁ршәа	-11121
▁стәы	-11122
▁шыра	-11123
▁шәаҳ	-11124
ҵарыла	-11125
▁Аԥсра	-11126
▁еиԥшны	-11127
▁аҳаиртә	-11128
▁аимператор	-11129
▁атранспорт	-11130
in	-11131
-20	-11132
буа	-11133
лгаз	-11134
▁Вар	-11135
▁Уаҩ	-11136
▁Қар	-11137
▁Ԥсы	-11138
ҭырԥа	-11139
ҭыԥҳа	-11140
▁Зина	-11141
▁дшыл	-11142
▁ибым	-11143
баауан	-11144
ырџьан	-11145
ԥырҵны	-11146
▁Ахаҳә	-11147
▁Елена	-11148
▁ҳабла	-11149
ҿагылаз	-11150
▁абрагь	-11151
▁ицәымӷ	-11152
▁хырхар	-11153
▁дыҟоума	-11154
▁иақәшәаз	-11155
▁иҟаҵатәу	-11156
гәо	-11157
цәам	-11158
ҵауа	-11159
▁дык	-11160
▁хаҿ	-11161
шьыга	-11162
▁алак	-11163
жәуеит	-11164
▁аиуби	-11165
▁ижәны	-11166
▁имуит	-11167
▁шәҩык	-11168
ӷәӷәала	-11169
▁аԥхара	-11170
▁Хәыхәыт	-11171
▁ашәхымс	-11172
▁иахьала	-11173
▁иқәлеит	-11174
▁операциа	-11175
бџьармчқәа	-11176
▁адокументқәа	-11177
▁игәаанагарала	-11178
▁Ажәеинраалақәа	-11179
▁Аҿ	-11180
олда	-11181
▁Баб	-11182
▁сыц	-11183
ҵәраа	-11184
ҵарсны	-11185
▁бираҟ	-11186
▁инҭеи	-11187
▁класс	-11188
цәырҵуа	-11189
қәыԥшра	-11190
▁адәаҿы	-11191
▁ииашоу	-11192
▁рынцәа	-11193
▁ҵакыла	-11194
зынлагьы	-11195
▁Рашәара	-11196
▁днаскьа	-11197
▁ашәарыцаҩ	-11198
ҳәца	-11199
▁уоу	-11200
ҳәыра	-11201
▁2014	-11202
▁АШәМ	-11203
▁Мина	-11204
▁афед	-11205
▁бӷьы	-11206
▁дтәа	-11207
▁Ииаша	-11208
▁аҿари	-11209
тегориа	-11210
▁анаука	-11211
▁нарҭаа	-11212
▁Никәала	-11213
▁ақәҵаны	-11214
▁астудент	-11215
гәамҭаӡакәа	-11216
▁адырраҭараҿы	-11217
Гәа	-11218
утә	-11219
шьна	-11220
аарын	-11221
галоз	-11222
цәала	-11223
ҵәҩан	-11224
ӡбара	-11225
▁инад	-11226
бахьоу	-11227
гарала	-11228
гәнаҳа	-11229
тәқәеи	-11230
бжьарак	-11231
тегиатә	-11232
▁зынгьы	-11233
▁Арушьан	-11234
▁иалкаау	-11235
▁сеиҳәеит	-11236
ессионалтә	-11237
▁иааҟәымҵӡакәа	-11238
оуз	-11239
унд	-11240
гәыҭ	-11241
ропа	-11242
▁Раб	-11243
▁ҟау	-11244
хазеи	-11245
шьҭуаз	-11246
ҳәалоз	-11247
ҳәҳәон	-11248
▁Китаи	-11249
▁Шабаҭ	-11250
▁ианры	-11251
башьуан	-11252
ҳәозгьы	-11253
ԥшымреи	-11254
▁даауан	-11255
▁зныԥшуа	-11256
▁имамкәа	-11257
▁шаҟантә	-11258
▁ашәшьыра	-11259
▁иашьашәа	-11260
▁ашьжьымҭан	-11261
▁иадҳәалоуп	-11262
▁рыцхыраара	-11263
ҷи	-11264
лат	-11265
▁қа	-11266
!..»	-11267
илаа	-11268
▁рыԥ	-11269
бӷьыц	-11270
оллар	-11271
хыхны	-11272
▁лани	-11273
▁Ҭина	-11274
▁ишаны	-11275
▁шәнеи	-11276
▁арацәа	-11277
▁иамуит	-11278
▁дԥышәыр	-11279
▁аахысгьы	-11280
▁ҵыхәаԥҵәара	-11281
пт	-11282
аныҟә	-11283
ҩымҭа	-11284
ҳәаҩы	-11285
ҵартә	-11286
▁Рома	-11287
▁анҳа	-11288
▁аҵра	-11289
шьарба	-11290
ҭаратә	-11291
▁атыша	-11292
▁ауаса	-11293
▁ахьшь	-11294
▁лҩыза	-11295
▁рхаҭа	-11296
тәаланы	-11297
шьаҭада	-11298
▁атерро	-11299
▁иагеит	-11300
▁иҟаҵоу	-11301
▁Абызшәа	-11302
▁дыруаӡә	-11303
▁Кристина	-11304
▁Исгәалашәоит	-11305
Иҳа	-11306
еом	-11307
▁70	-11308
▁фи	-11309
▁иҩу	-11310
▁ҭна	-11311
елект	-11312
қәшәо	-11313
▁абеи	-11314
▁аҭар	-11315
▁иҟал	-11316
▁рныр	-11317
еинраа	-11318
▁ианар	-11319
▁цәырҵ	-11320
ҳәараны	-11321
▁аӡынра	-11322
▁аламала	-11323
ӷьаҵәыӷьа	-11324
▁дреиуоуп	-11325
▁ажәытәтәи	-11326
▁аҭырқәцәа	-11327
▁Урыстәылантәи	-11328
ҟо	-11329
чан	-11330
▁Со	-11331
лдыр	-11332
онов	-11333
ымыз	-11334
▁чча	-11335
▁акаб	-11336
▁аҟаз	-11337
▁среи	-11338
▁шьны	-11339
днестр	-11340
еиԥшны	-11341
▁иадна	-11342
ҭыхақәа	-11343
▁иуҳәаз	-11344
▁лгәала	-11345
▁қәԥара	-11346
▁иамоузеи	-11347
▁ақьырсианцәа	-11348
le	-11349
Ака	-11350
маҟ	-11351
ози	-11352
қьаф	-11353
ликаа	-11354
▁Ҟаза	-11355
▁ԥсуа	-11356
шәарыц	-11357
▁ахьыл	-11358
▁ирыцә	-11359
▁мчқәа	-11360
▁рашҭа	-11361
гәаӷьит	-11362
▁Габлиа	-11363
▁иаҵкыс	-11364
▁лахьын	-11365
▁маншәа	-11366
дтәаланы	-11367
хәмаруан	-11368
▁аԥсахра	-11369
қәшаҳаҭым	-11370
▁дааиуеит	-11371
▁раарԥшра	-11372
зыӡырҩуеит	-11373
▁Ауааԥсыра	-11374
▁ахәыҷқәеи	-11375
▁хәышықәса	-11376
▁дыҟаӡамызт	-11377
УН	-11378
ал	-11379
гац	-11380
зак	-11381
ҭыл	-11382
стер	-11383
џьаҟ	-11384
▁ибз	-11385
▁лка	-11386
▁лҭа	-11387
▁2008	-11388
▁Ацҳа	-11389
▁Кака	-11390
▁нара	-11391
▁нбан	-11392
▁иоума	-11393
▁ицәым	-11394
▁уҟоуп	-11395
▁Ҳашыг	-11396
Макьана	-11397
гәыӷуан	-11398
сҭаацәа	-11399
▁зҭахыз	-11400
▁ԥҳәыси	-11401
▁аҭалара	-11402
▁иарбану	-11403
▁адкылара	-11404
▁саҳауеит	-11405
▁Багаҭелиа	-11406
▁дааҟалеит	-11407
▁акандидатцәа	-11408
▁ииашаҵәҟьаны	-11409
сте	-11410
жәон	-11411
иком	-11412
▁Сна	-11413
▁кры	-11414
пахьы	-11415
ҟаԥшь	-11416
ирхеит	-11417
▁снеит	-11418
▁шәақь	-11419
жәымзар	-11420
▁иҟнытә	-11421
▁амарџьа	-11422
▁Герхелиа	-11423
▁шьақәнар	-11424
▁ачеиџьыка	-11425
▁дахәаԥшуан	-11426
▁ахырӷәӷәарҭа	-11427
»;	-11428
АМ	-11429
иуз	-11430
хьшь	-11431
ӡана	-11432
▁зну	-11433
еорги	-11434
уаҩыс	-11435
▁Еиҭа	-11436
▁НАТО	-11437
▁Нуца	-11438
мыжьын	-11439
▁ахәым	-11440
шистцәа	-11441
ымҭацәа	-11442
▁аауеит	-11443
▁наганы	-11444
гәырӷьан	-11445
зымдырӡо	-11446
▁агәҭынч	-11447
цәырҵуеит	-11448
▁еибашьуаз	-11449
пер	-11450
хои	-11451
бгоу	-11452
шьшь	-11453
▁Хьа	-11454
▁ззу	-11455
▁иаҵ	-11456
маҵыс	-11457
ҳаҭра	-11458
▁наӡа	-11459
ционер	-11460
▁иддыр	-11461
▁иҭҵаа	-11462
▁сеиҭа	-11463
▁шьапы	-11464
▁Ирацәа	-11465
▁аусутә	-11466
уазароуп	-11467
▁аиҳабыс	-11468
▁ашьапаҿы	-11469
▁џьушьома	-11470
▁Аџьынџьал	-11471
▁аусумҭақәа	-11472
▁аизыҟазаашьақәа	-11473
маҵ	-11474
ҳаа	-11475
рышь	-11476
шаша	-11477
ҵәыр	-11478
▁Сыш	-11479
▁ими	-11480
▁цас	-11481
ҭәара	-11482
хьымӡо	-11483
▁ацәыӡ	-11484
▁еицны	-11485
▁ҽынла	-11486
▁асаара	-11487
тересқәа	-11488
ԥсахуеит	-11489
▁акомпоз	-11490
▁традициа	-11491
▁иреиҳаӡоу	-11492
▁дахьышьҭаз	-11493
ҩыра	-11494
▁Ҳаш	-11495
ҟьарц	-11496
ҵәаху	-11497
▁Иура	-11498
▁ахын	-11499
▁лшьа	-11500
лаҩцәа	-11501
ццакын	-11502
▁агәеи	-11503
▁аҩыра	-11504
▁иацыр	-11505
▁иумоу	-11506
▁сасра	-11507
гәаҟуан	-11508
▁иазкуп	-11509
▁иҟаҵаз	-11510
▁цәгьан	-11511
▁ицәажәо	-11512
▁иҳәатәы	-11513
▁дахьынхоз	-11514
▁иаҵанакуаз	-11515
▁иазгәарҭеит	-11516
6-	-11517
ҷҷо	-11518
▁уц	-11519
диба	-11520
хуам	-11521
қара	-11522
▁Ижә	-11523
▁Сол	-11524
▁дрых	-11525
▁срыз	-11526
▁ҳаҟа	-11527
▁дшықә	-11528
▁схәыҷ	-11529
Убасҟан	-11530
▁аиҭеит	-11531
▁маҷӡак	-11532
▁Аҳақьым	-11533
▁исҭахыз	-11534
▁ҟаҳҵоит	-11535
▁дхынҳәны	-11536
▁ҩныҵҟала	-11537
▁ахаҿсахьа	-11538
▁адгьылбжьа	-11539
▁абыржәыҵәҟьа	-11540
25	-11541
иԥсы	-11542
ташь	-11543
▁уыи	-11544
ижьит	-11545
▁амаҷ	-11546
▁зтәу	-11547
▁ицны	-11548
каартә	-11549
▁Дуӡӡа	-11550
▁аҭуан	-11551
▁еилоу	-11552
▁иахар	-11553
▁ижәла	-11554
▁иџьоу	-11555
етикатә	-11556
▁Даргьы	-11557
▁аԥырҩы	-11558
▁ҿырҳәа	-11559
▁дхәыцуа	-11560
ҵәыжәҩақәа	-11561
▁аспециали	-11562
▁шьыжьымҭан	-11563
цәу	-11564
▁Ум	-11565
ласск	-11566
халан	-11567
ҟнытә	-11568
▁2015	-11569
▁Лгәы	-11570
▁абзи	-11571
▁нхыҵ	-11572
ҩашқәа	-11573
▁иузеи	-11574
қәыԥшыз	-11575
▁артист	-11576
▁ацентр	-11577
▁рныҳәа	-11578
хынҳәуан	-11579
▁Сақаниа	-11580
▁абасгьы	-11581
▁абасҟак	-11582
▁аламҭалазы	-11583
сахьаркыратә	-11584
аҳ	-11585
аха	-11586
кор	-11587
сер	-11588
▁Се	-11589
рҭәа	-11590
уҳәа	-11591
ҭран	-11592
ҵәоу	-11593
▁зус	-11594
▁ҵау	-11595
ааины	-11596
илшоз	-11597
ҭаауа	-11598
▁Аџыр	-11599
▁адыд	-11600
▁шәсы	-11601
рыжьыз	-11602
ҭаххар	-11603
▁иаасы	-11604
▁ухаҭа	-11605
▁ҩбаҟа	-11606
▁дашьҭа	-11607
▁дзеиԥш	-11608
▁ихылԥа	-11609
▁ҳараку	-11610
▁ахықәан	-11611
▁днаганы	-11612
▁дыршьит	-11613
▁еиҿкааны	-11614
▁хықәкыла	-11615
▁русзуҩцәа	-11616
▁аҿырԥштәқәа	-11617
▁ҭҵаарадыррақәа	-11618
хәап	-11619
ҵари	-11620
льник	-11621
▁Азин	-11622
▁Дана	-11623
андара	-11624
зыԥшаа	-11625
ҭазгьы	-11626
▁жәаха	-11627
▁орган	-11628
▁хааӡа	-11629
станциа	-11630
цәыуадаҩ	-11631
▁уаабеит	-11632
Аредактор	-11633
▁уҳәаратәы	-11634
▁аиҭашьақәыр	-11635
▁еиҩ	-11636
еруса	-11637
▁иалу	-11638
▁џьыр	-11639
▁Витиа	-11640
▁Махаз	-11641
▁зхала	-11642
▁рҵакы	-11643
▁ԥышәа	-11644
▁Женева	-11645
▁амшала	-11646
▁ззырҳәо	-11647
естициатә	-11648
омандақәа	-11649
▁еицҿакны	-11650
▁ақәгылара	-11651
▁ирацәаҩны	-11652
▁иқәгылоуп	-11653
▁днеиҿаԥшит	-11654
▁имҩаԥысраны	-11655
▁хшыҩзышьҭра	-11656
2.	-11657
:5	-11658
це	-11659
мҳәа	-11660
▁раԥ	-11661
Аԥхьа	-11662
дугьы	-11663
▁ибаа	-11664
гаҩцәа	-11665
гозгьы	-11666
▁Ачара	-11667
▁Ирина	-11668
▁аӡаӡа	-11669
▁баҳча	-11670
▁иаҿыр	-11671
хагылан	-11672
ӡырҩуан	-11673
▁Арратә	-11674
▁зыбжьы	-11675
▁иакәны	-11676
▁сгылан	-11677
▁сыхәда	-11678
▁Аиашазы	-11679
▁ауаҩԥсы	-11680
▁схәыҷра	-11681
▁иԥсабара	-11682
▁аизырҳара	-11683
▁аԥааимбар	-11684
▁аԥсабаратә	-11685
▁исыԥхьаӡоит	-11686
▁иазгәаҭатәуп	-11687
Ин	-11688
хник	-11689
ԥхар	-11690
▁Аԥш	-11691
▁фба	-11692
ҭаӡом	-11693
ҵашаз	-11694
▁Мары	-11695
▁Сахь	-11696
▁ҭраа	-11697
ҳәҳәан	-11698
ԥшыкәа	-11699
▁аиҩыз	-11700
▁хкқәа	-11701
аамсҭеи	-11702
арантин	-11703
▁напхга	-11704
▁наскьа	-11705
▁рықәыр	-11706
▁Камаҷыҷ	-11707
▁ишакәым	-11708
▁сыҟамызт	-11709
▁хәылԥазы	-11710
Адыр	-11711
аира	-11712
ԥарч	-11713
маана	-11714
цәада	-11715
▁Аџьа	-11716
▁Маан	-11717
▁аақә	-11718
▁даба	-11719
▁игәи	-11720
▁ласы	-11721
▁мҩас	-11722
ҩаӡара	-11723
ҷаԥшьа	-11724
▁аԥсҳа	-11725
▁иаҭәа	-11726
▁иссир	-11727
▁сезон	-11728
▁Ҵабал	-11729
гылалак	-11730
цхраауа	-11731
кандидат	-11732
лацәажәа	-11733
▁ҟамлеит	-11734
▁рацәаҩуп	-11735
▁ашьақәгылара	-11736
▁аԥсҭазааратә	-11737
▁­	-11738
Ахы	-11739
хәи	-11740
бжьи	-11741
гәду	-11742
мшьа	-11743
▁лаа	-11744
зырҳа	-11745
сымша	-11746
▁ҽыла	-11747
мазара	-11748
шьоукы	-11749
ҳәуеит	-11750
ҵахьоу	-11751
әымпыл	-11752
ԥсуара	-11753
▁Аҳәса	-11754
▁арҽеи	-11755
▁ддәықә	-11756
▁игәаҵа	-11757
бзоурала	-11758
▁процент	-11759
▁усҵәҟьа	-11760
▁агәахәара	-11761
▁иаԥырхага	-11762
▁мҩаԥыргон	-11763
▁ахәыҷбаҳча	-11764
▁иналукааша	-11765
Дыр	-11766
чик	-11767
ымҭ	-11768
пату	-11769
▁дау	-11770
дгыло	-11771
ырҭын	-11772
ҩагьы	-11773
▁Ақәы	-11774
▁акыл	-11775
зынхаз	-11776
џьымшь	-11777
ӷәӷәаз	-11778
▁Амҷба	-11779
▁Донбас	-11780
▁сҳәоит	-11781
▁Абзиара	-11782
▁аԥҭақәа	-11783
▁Цандрыԥшь	-11784
▁ианаамҭоу	-11785
▁афольклортә	-11786
>>	-11787
тыр	-11788
▁ԥи	-11789
гӡар	-11790
ҵуам	-11791
ҵәак	-11792
▁Аҿа	-11793
▁Деи	-11794
ҟанаҵ	-11795
ҭахны	-11796
▁адиа	-11797
▁ашыц	-11798
▁ирбо	-11799
▁шәца	-11800
шароуп	-11801
▁аахәа	-11802
▁дааҭа	-11803
▁иацыз	-11804
▁сынҭа	-11805
ҭахушәа	-11806
▁сыгәра	-11807
▁шәареи	-11808
▁Аҵнариа	-11809
▁аҵыхәан	-11810
▁иаԥырха	-11811
▁рызегьы	-11812
▁аԥсшьарҭа	-11813
дик	-11814
маф	-11815
руж	-11816
ххо	-11817
ынҵ	-11818
гьал	-11819
назы	-11820
наҭо	-11821
саны	-11822
▁иак	-11823
кьакь	-11824
ссатә	-11825
сырҭа	-11826
ҭартә	-11827
▁амоу	-11828
▁лаби	-11829
нахуан	-11830
▁аҳцәа	-11831
▁даалы	-11832
▁уҳәан	-11833
▁саннеи	-11834
нагалеит	-11835
▁иааигаз	-11836
▁илабашьа	-11837
▁шәаабеит	-11838
▁иреиҳәеит	-11839
▁ҩашьомызт	-11840
хх	-11841
Ашь	-11842
вед	-11843
нич	-11844
геим	-11845
теле	-11846
▁иыр	-11847
▁Ҳәа	-11848
▁ҳаҭ	-11849
▁ҳаҽ	-11850
аншәа	-11851
лакны	-11852
шәҩык	-11853
▁Лиуд	-11854
▁збап	-11855
бзиала	-11856
▁аҿтәи	-11857
▁рыбза	-11858
▁Џьоукы	-11859
▁Шевард	-11860
▁ииарҭа	-11861
▁аӡыргара	-11862
▁Ермантәыла	-11863
▁аҵарадырра	-11864
ҽуа	-11865
жәар	-11866
ҟәуа	-11867
▁смы	-11868
▁ҭаз	-11869
брика	-11870
ҭарԥа	-11871
бжьаны	-11872
ҟарҵаз	-11873
▁Анкьа	-11874
▁афакт	-11875
▁дыччо	-11876
▁ихьыз	-11877
▁лыман	-11878
▁Бзыԥҭа	-11879
▁Гәдиса	-11880
▁аԥсреи	-11881
▁зыхьӡу	-11882
▁иаԥҵоу	-11883
▁гәыԥқәа	-11884
▁хыркәша	-11885
▁аспорттә	-11886
▁астанциа	-11887
▁имҩаԥган	-11888
▁нҵәаанӡа	-11889
▁Венесуела	-11890
▁аҵанакуеит	-11891
▁Акоронавирус	-11892
▁дарбанзаалак	-11893
Мат	-11894
виз	-11895
жьи	-11896
уҭа	-11897
неир	-11898
чҳаз	-11899
ҭәны	-11900
ҷыда	-11901
▁сир	-11902
кырҭа	-11903
хәала	-11904
хәыҵа	-11905
ҵазеи	-11906
▁Џьам	-11907
▁аген	-11908
▁дназ	-11909
▁илҭа	-11910
Ашәҟәы	-11911
угақәа	-11912
қәтәан	-11913
▁Нодар	-11914
▁блала	-11915
оемақәа	-11916
▁азауад	-11917
▁ҟалома	-11918
ҳәахьеит	-11919
▁ҭаҳмада	-11920
▁хырхарҭа	-11921
▁аизарақәа	-11922
▁афинанстә	-11923
▁иааигәара	-11924
▁аусзуҩцәеи	-11925
Ес	-11926
зиз	-11927
гени	-11928
▁Аду	-11929
▁ҭеи	-11930
Жәлар	-11931
арыма	-11932
кразы	-11933
қәаки	-11934
қәара	-11935
ԥсаҭа	-11936
▁Леуа	-11937
▁Уаҩы	-11938
▁ааба	-11939
▁ухьӡ	-11940
ҩыбжьа	-11941
▁Кәара	-11942
▁кырӡа	-11943
▁иламыс	-11944
▁Ҷкадуа	-11945
нызқьҩык	-11946
▁иалагар	-11947
▁иаҳаҭыр	-11948
▁иҭахеит	-11949
▁Ҳаразиа	-11950
▁иаанханы	-11951
▁иалахәуп	-11952
▁аҳазалхратә	-11953
▁аҭаацәарақәа	-11954
густ	-11955
дыџь	-11956
ерал	-11957
қәыԥ	-11958
удент	-11959
ҭратә	-11960
▁аҵаи	-11961
▁рыду	-11962
тәымыз	-11963
▁Екате	-11964
▁ақәаб	-11965
▁иамеи	-11966
▁ирахә	-11967
▁форум	-11968
▁зыхҟьо	-11969
▁инацәа	-11970
▁рԥеиԥш	-11971
хымҩаԥга	-11972
▁биуџьет	-11973
▁рыхшара	-11974
▁аанкылан	-11975
▁ишалагаз	-11976
▁Европатәи	-11977
▁рызҵаарақәа	-11978
схыр	-11979
гәышә	-11980
ининг	-11981
сҭоит	-11982
чҳаит	-11983
ҭанар	-11984
▁дрыл	-11985
▁жәба	-11986
▁иӡыр	-11987
ларшәа	-11988
қәырха	-11989
▁Света	-11990
▁архит	-11991
▁аӡыжь	-11992
▁шалшо	-11993
▁аиашаз	-11994
▁ишԥаҟа	-11995
▁здыруан	-11996
▁иааргаз	-11997
▁ажәакгьы	-11998
▁шәазхәыц	-11999
▁ахьышәҭҳәа	-12000
ых	-12001
пет	-12002
тла	-12003
▁мц	-12004
рышә	-12005
▁мал	-12006
гылац	-12007
енант	-12008
ҳәааз	-12009
▁Чама	-12010
▁ааих	-12011
дароуп	-12012
ырҭатә	-12013
▁Аԥара	-12014
▁иагаз	-12015
▁сцаны	-12016
кәкәаны	-12017
қыҭақәа	-12018
▁дахьым	-12019
цырдыруа	-12020
ыҵәҟьаны	-12021
▁рҭынчны	-12022
▁харантә	-12023
▁Ӡиӡариа	-12024
ҵанакуеит	-12025
▁ҭаацәара	-12026
▁Приднестр	-12027
▁ицәажәара	-12028
▁зынӡаскгьы	-12029
▁сышьҭахьҟа	-12030
муа	-12031
маан	-12032
мида	-12033
▁30-	-12034
▁акь	-12035
▁дҳар	-12036
▁еиҟә	-12037
▁усым	-12038
▁ҳамч	-12039
▁ахәыр	-12040
▁даҟәы	-12041
▁харак	-12042
▁Ҟаԥшь	-12043
▁ҟьаҟьа	-12044
▁ҳамҭак	-12045
▁Ӡыкәыр	-12046
▁абизнес	-12047
▁атәарҭа	-12048
▁деиҭана	-12049
▁ирҭахыз	-12050
▁уаҳагьы	-12051
▁днеиуеит	-12052
▁дықәлеит	-12053
▁акызаҵәык	-12054
▁ахыбрақәа	-12055
▁аладырхәит	-12056
▁R	-12057
қыҭ	-12058
ҽни	-12059
лала	-12060
ҭәоу	-12061
▁тәы	-12062
тәӡам	-12063
▁шҭаз	-12064
хахьаз	-12065
цәгьеи	-12066
қәтәаз	-12067
▁еидна	-12068
андемиа	-12069
вагылан	-12070
хьчареи	-12071
▁авирус	-12072
▁атауар	-12073
▁даҽаӡә	-12074
▁рыжәла	-12075
▁қәрала	-12076
▁Шықәсык	-12077
▁иҟарҵоз	-12078
▁снапқәа	-12079
▁ауадақәа	-12080
▁ацәырҵра	-12081
▁аҵыхәтәа	-12082
▁иҟарҵеит	-12083
▁Аҷкәынцәа	-12084
▁Гәдоуҭаҟа	-12085
▁Мамзаргьы	-12086
▁днықәтәеит	-12087
▁шәазыӡырҩыр	-12088
▁аҵараиурҭақәа	-12089
▁изаҟаразаалак	-12090
//	-12091
Ҭа	-12092
блит	-12093
дцәа	-12094
жара	-12095
кыза	-12096
тали	-12097
▁Мра	-12098
▁аҭо	-12099
▁дцо	-12100
▁ҳир	-12101
Ашьха	-12102
мацәы	-12103
▁дшын	-12104
▁изҭа	-12105
▁иоуз	-12106
▁дыҟоу	-12107
гәышьоз	-12108
еиҳәеит	-12109
▁Аҩныҟа	-12110
▁Еилакы	-12111
▁обиект	-12112
▁шрымоу	-12113
глыхратә	-12114
▁ибызшәа	-12115
▁иуадаҩу	-12116
▁ӷәӷәаны	-12117
▁шьақәзыр	-12118
▁сзымдыруа	-12119
иаҳ	-12120
▁XI	-12121
ажәа	-12122
баӷь	-12123
галт	-12124
хиаз	-12125
▁зду	-12126
▁маа	-12127
▁«...	-12128
▁Ирак	-12129
еомызт	-12130
ҳәагьы	-12131
▁Аилак	-12132
▁аатит	-12133
▁данры	-12134
▁иаара	-12135
ментқәа	-12136
ҳәазшәа	-12137
ҿлымҳан	-12138
▁ианыҟаз	-12139
▁иԥсыбаҩ	-12140
▁Ианиҵеит	-12141
▁ацәанырра	-12142
▁иаанагеит	-12143
▁Америкатәи	-12144
▁аиндаҭлара	-12145
▁ибаҩхатәра	-12146
руд	-12147
▁Фе	-12148
ԥхын	-12149
заауа	-12150
иааит	-12151
хыҭуа	-12152
▁ахьч	-12153
▁Алиса	-12154
▁Гыцба	-12155
▁афара	-12156
▁еикәа	-12157
Ибзиоуп	-12158
хыҵуеит	-12159
хьыӡқәа	-12160
ҭныԥсах	-12161
гәаладыр	-12162
гәаланар	-12163
гәышьоит	-12164
▁илеиуаз	-12165
▁инарыла	-12166
▁даҽазнык	-12167
▁политикеи	-12168
мед	-12169
▁45	-12170
гома	-12171
жәаз	-12172
ԥшып	-12173
ԥыра	-12174
▁Бен	-12175
▁асу	-12176
▁ҭаа	-12177
▁Абга	-12178
▁араб	-12179
леиуаз	-12180
ҭаршын	-12181
▁Хәыта	-12182
▁асанк	-12183
▁иахьу	-12184
▁иеиҭа	-12185
▁ишәыр	-12186
▁уоума	-12187
гылакәа	-12188
▁Агәашә	-12189
▁дыбжьа	-12190
шьҭрақәа	-12191
▁ацәажәа	-12192
▁иалахәу	-12193
▁лыԥшәма	-12194
Издыруада	-12195
қәшаҳаҭхеит	-12196
▁афырхаҵара	-12197
▁шәарҭадара	-12198
ҳап	-12199
бком	-12200
ҳаҵә	-12201
▁Аоп	-12202
▁ҭын	-12203
арашь	-12204
заҵәы	-12205
қәлаз	-12206
▁Дыгә	-12207
▁дшым	-12208
еилакы	-12209
хьӡоит	-12210
▁Аҳауа	-12211
▁иасыр	-12212
▁хыбра	-12213
олитика	-12214
▁аҭыжьы	-12215
▁иахьым	-12216
▁лылахь	-12217
гылазшәа	-12218
ерусалим	-12219
лырҟьаны	-12220
▁анаӡара	-12221
▁усмҩаԥгатәқәа	-12222
кша	-12223
мҭра	-12224
▁лус	-12225
▁ҟаҳ	-12226
▁ҭам	-12227
иашам	-12228
ҭыҵыз	-12229
▁атру	-12230
▁лаба	-12231
▁уама	-12232
▁Нанба	-12233
▁азҭаз	-12234
▁рҭахын	-12235
▁лашьцәа	-12236
▁уҩызцәа	-12237
▁ахаҭагьы	-12238
▁аашьҭихын	-12239
▁уаанӡагьы	-12240
емократиатә	-12241
▁алагамҭазы	-12242
дысныҳәалоит	-12243
шу	-12244
Жәа	-12245
Ахәы	-12246
▁Мин	-12247
идеми	-12248
хәыла	-12249
▁ацуп	-12250
▁банк	-12251
▁боуп	-12252
▁дыԥш	-12253
▁зусҭ	-12254
▁имаа	-12255
▁иҳал	-12256
▁иӡаа	-12257
▁шәна	-12258
хьчарц	-12259
шәакәа	-12260
▁Кавка	-12261
▁Рацәа	-12262
▁ихәыц	-12263
▁ахьӡуп	-12264
▁ҳабжьа	-12265
гылароуп	-12266
ерикатәи	-12267
хәмаруаз	-12268
▁гәарҭак	-12269
▁аиҩызара	-12270
хьшәашәаӡа	-12271
▁ԥхьаҟагьы	-12272
▁Ҳаԥсадгьыл	-12273
▁рышьақәыргылара	-12274
ах	-12275
еџь	-12276
пут	-12277
ӡбо	-12278
▁Ку	-12279
хдыр	-12280
▁шар	-12281
асҭеи	-12282
маҳац	-12283
▁днас	-12284
▁ззым	-12285
Аԥҳәыс	-12286
▁ашьра	-12287
▁еибаҳ	-12288
▁иавто	-12289
▁иԥсыз	-12290
▁ашьтәа	-12291
▁дышьны	-12292
▁Ҩаԥхьа	-12293
ҭарҳәеит	-12294
▁апатреҭ	-12295
▁арзаҳал	-12296
▁зныкгьы	-12297
▁рырҭеит	-12298
▁Сафарбеи	-12299
▁еицырдыруаз	-12300
▁иҭагылазаашьа	-12301
руп	-12302
▁Дә	-12303
гаӡа	-12304
лахь	-12305
▁нам	-12306
▁қар	-12307
Мшәан	-12308
ланҵы	-12309
хыкны	-12310
▁Лаба	-12311
▁Март	-12312
▁даау	-12313
кылсын	-12314
▁асаба	-12315
▁аԥсаа	-12316
▁иаалы	-12317
▁Агәмаа	-12318
▁Георги	-12319
▁дызлаз	-12320
▁аҟынгьы	-12321
▁дашьҭан	-12322
▁исҳәоит	-12323
▁комитет	-12324
граммақәа	-12325
▁шәҟәыҩҩы	-12326
▁Изакәызеи	-12327
▁ҩышьҭыхны	-12328
▁аҳаирбаӷәаза	-12329
3-	-12330
Аҵх	-12331
▁См	-12332
▁кь	-12333
хауа	-12334
▁Дар	-12335
▁оуп	-12336
▁ҳра	-12337
мыхәо	-12338
шьҭыс	-12339
▁Чаҵә	-12340
▁аала	-12341
▁еизи	-12342
▁зхьы	-12343
Егьырҭ	-12344
Иаргьы	-12345
атлакә	-12346
наркит	-12347
тәышьа	-12348
▁ауаҩи	-12349
▁инаха	-12350
▁царҭа	-12351
аамҭала	-12352
▁Кәынта	-12353
▁ианықә	-12354
▁ихьшәа	-12355
цалакгьы	-12356
▁рызхара	-12357
▁ҟасҵеит	-12358
қәымшәеит	-12359
▁ицәажәоз	-12360
▁дақәтәаны	-12361
усиа	-12362
ԥсар	-12363
▁Дна	-12364
▁ООН	-12365
▁риа	-12366
нахыз	-12367
ылхит	-12368
ҭыҵын	-12369
▁авиа	-12370
▁хаҭа	-12371
жеиҳан	-12372
▁Мысҭа	-12373
▁аҽазы	-12374
▁ҳҵара	-12375
▁Мадлеи	-12376
▁аҵареи	-12377
▁гәырӷь	-12378
▁лыхәда	-12379
▁шәарҭа	-12380
▁ҳанааи	-12381
▁Ирҳәоит	-12382
▁бааԥсык	-12383
▁иԥхьаӡа	-12384
▁мчрақәа	-12385
▁аурымқәа	-12386
▁еимадара	-12387
▁цәанырра	-12388
▁абызшәатә	-12389
7).	-12390
еле	-12391
рҭо	-12392
таа	-12393
цхь	-12394
Ԥыҭ	-12395
хази	-12396
чыла	-12397
леиԥш	-12398
шәныр	-12399
ԥсада	-12400
▁дцар	-12401
нџьара	-12402
хьчеит	-12403
▁Ибжьы	-12404
▁алхра	-12405
▁анапа	-12406
▁аџьам	-12407
▁ихазы	-12408
▁лыԥха	-12409
▁саҿын	-12410
▁сеила	-12411
▁схаҿы	-12412
▁шьала	-12413
▁Ишдыру	-12414
дикылеит	-12415
ԥшуамызт	-12416
▁Еиҳарак	-12417
▁ажәлари	-12418
▁ииашоуп	-12419
▁иџьабаа	-12420
▁ақыҭауаа	-12421
▁аҳаҭыртә	-12422
▁издыруам	-12423
▁ҟьаҟьаӡа	-12424
▁имҩаԥырго	-12425
▁Аџьынџьтәылатәи	-12426
▁M	-12427
зон	-12428
хатә	-12429
▁Зхы	-12430
кхьан	-12431
овтәи	-12432
сааит	-12433
ԥсыма	-12434
▁аԥаҩ	-12435
▁сшәа	-12436
Иҟалап	-12437
аҵыхәа	-12438
шьозар	-12439
▁алаку	-12440
▁уанӡа	-12441
▁Иԥҳәыс	-12442
▁арҵага	-12443
▁ахьааи	-12444
▁есыҽны	-12445
▁ижәытә	-12446
▁ииасит	-12447
▁итәоуп	-12448
▁даарыла	-12449
▁далагон	-12450
▁иҟанаҵо	-12451
▁аԥсылман	-12452
▁дахьнеиз	-12453
Апарламент	-12454
▁аресторан	-12455
▁ашәаҳәара	-12456
▁закәаншьаҭада	-12457
ce	-12458
▁l	-12459
осм	-12460
шәт	-12461
ҚӘА	-12462
ԥаҿ	-12463
▁Мо	-12464
баша	-12465
ганк	-12466
ҵырц	-12467
▁Акә	-12468
етрад	-12469
жьуаз	-12470
▁Санд	-12471
▁аӡәк	-12472
▁ираҳ	-12473
татқәа	-12474
▁Амҩан	-12475
▁аасыр	-12476
▁ажәра	-12477
хахьеит	-12478
▁жәаҩык	-12479
▁ҩнуҵҟа	-12480
▁амӡырха	-12481
▁аусумҭа	-12482
▁ахрақәа	-12483
▁иаҩызан	-12484
▁аҵәыуара	-12485
▁иахылҵыз	-12486
▁еиҭеиҳәоит	-12487
аф	-12488
бка	-12489
ист	-12490
лац	-12491
лок	-12492
миз	-12493
ҵҟьа	-12494
▁Доу	-12495
ԥылан	-12496
▁ашыш	-12497
▁ирзи	-12498
▁наиа	-12499
мызгьы	-12500
џьнатә	-12501
ҵаауаз	-12502
▁адиал	-12503
▁атҟәа	-12504
▁дызҿу	-12505
▁ибара	-12506
▁Аԥсшәа	-12507
▁санааи	-12508
▁убригь	-12509
▁цәажәа	-12510
социациа	-12511
▁амацәыс	-12512
▁ашәахьа	-12513
▁еилкаам	-12514
▁сҭахӡам	-12515
▁еиликаарц	-12516
▁анаҩсангьы	-12517
▁идиныҳәалеит	-12518
6,	-12519
зо	-12520
Уаа	-12521
цес	-12522
етон	-12523
миль	-12524
ович	-12525
хаӡа	-12526
▁жәи	-12527
▁ҭах	-12528
хьшьы	-12529
▁Аиба	-12530
▁аасы	-12531
▁акык	-12532
▁алас	-12533
▁дуун	-12534
▁илак	-12535
▁иҵыр	-12536
әымзар	-12537
▁Хьыма	-12538
▁аабап	-12539
▁днана	-12540
▁иҟашә	-12541
▁уаҵәа	-12542
▁ҵәҩан	-12543
▁Ацентр	-12544
▁Урҭқәа	-12545
▁Хабыгә	-12546
▁анызба	-12547
▁стәала	-12548
▁дҭалеит	-12549
қәшаҳаҭуп	-12550
▁Шәачатәи	-12551
▁агәыԥқәа	-12552
▁амзызқәа	-12553
▁аӡиасқәа	-12554
▁дзықәшәаз	-12555
лаԥ	-12556
шҳа	-12557
ҭыц	-12558
каап	-12559
хиан	-12560
ҳмад	-12561
▁чар	-12562
хтәуп	-12563
ызгаз	-12564
▁акин	-12565
▁асин	-12566
▁ибна	-12567
▁ишьы	-12568
гәаԥхо	-12569
етақәа	-12570
жәаҳәа	-12571
хьӡала	-12572
▁Закан	-12573
▁реиқә	-12574
▁Лавров	-12575
▁ахәхәа	-12576
▁сакәым	-12577
ҭҵааҩцәа	-12578
▁ршьапқәа	-12579
лҵшьҭрақәа	-12580
4-	-12581
блыз	-12582
гәар	-12583
мышь	-12584
ринц	-12585
▁Тәа	-12586
капан	-12587
шьарц	-12588
шькла	-12589
ӷьӷьа	-12590
▁Киев	-12591
▁зҽеи	-12592
▁тема	-12593
зеиӷьа	-12594
ҭәааны	-12595
▁иҽеим	-12596
▁ҵакыс	-12597
▁Агазеҭ	-12598
▁абӷьыц	-12599
▁ипоема	-12600
▁исхашҭ	-12601
▁исыман	-12602
▁иҭыҵит	-12603
ԥырхагоу	-12604
▁Ахеилак	-12605
▁баӷәаза	-12606
▁гәыӷрак	-12607
▁рхархәа	-12608
▁акәзааит	-12609
▁азгәаҭоуп	-12610
▁аинтернет	-12611
▁гәырӷьара	-12612
9-	-12613
бын	-12614
ҿара	-12615
▁лҽы	-12616
ӡаара	-12617
▁1993	-12618
▁Арза	-12619
▁ажра	-12620
▁аиҵа	-12621
▁ҳхәы	-12622
нхацәа	-12623
ҟаиҵаз	-12624
ҿыхеит	-12625
марианы	-12626
ҳәҳәоит	-12627
▁Шьоукы	-12628
▁гызмал	-12629
▁зықәра	-12630
▁иаарту	-12631
▁иалҵит	-12632
▁имаҷуп	-12633
▁инаган	-12634
▁инықәы	-12635
зааигәаз	-12636
▁аԥслымӡ	-12637
џьеишьеит	-12638
▁аишьцәеи	-12639
▁дышгылаз	-12640
▁ҟаломызт	-12641
▁апассаџьыр	-12642
▁ишьақәгылаз	-12643
▁уанаџьалбеит	-12644
▁дааҟәымҵӡакәа	-12645
жәк	-12646
цик	-12647
ызу	-12648
ҭуан	-12649
▁зку	-12650
аамеҭ	-12651
лбаан	-12652
▁дшеи	-12653
▁сцап	-12654
▁ҵлак	-12655
анагеи	-12656
▁ашҳам	-12657
▁зқәыз	-12658
▁азҟаза	-12659
▁ҳусқәа	-12660
▁Донбасс	-12661
▁ахьыҟам	-12662
▁дышьҭан	-12663
▁техника	-12664
леитенант	-12665
лыргылеит	-12666
▁Лиудмила	-12667
▁ҷкәынцәа	-12668
▁сышнеиуаз	-12669
▁ыҟаӡамызт	-12670
▁аихшьаалақәа	-12671
▁иаанарԥшуеит	-12672
ело	-12673
ԥҭа	-12674
▁дн	-12675
дышә	-12676
жәбо	-12677
ччар	-12678
▁Иум	-12679
кхоит	-12680
лазар	-12681
уаҩык	-12682
▁Дани	-12683
▁Ианы	-12684
▁Коба	-12685
▁дзын	-12686
▁ыҟаз	-12687
▁Ахәыҷ	-12688
▁аболь	-12689
▁ашыла	-12690
▁дазым	-12691
▁еицыз	-12692
▁ҳаԥса	-12693
▁атради	-12694
▁иқәдыр	-12695
▁ҟәанда	-12696
▁знымзар	-12697
хантәарак	-12698
▁фольклор	-12699
▁апублицист	-12700
▁дныҩналеит	-12701
▁иахьашьҭоу	-12702
▁ахәмаррақәа	-12703
▁Кәарцхьиаԥҳа	-12704
ҭлы	-12705
аары	-12706
вара	-12707
▁уҽы	-12708
кнаҳа	-12709
ликәа	-12710
хьуаз	-12711
▁даду	-12712
▁драз	-12713
▁имыц	-12714
▁иҵыс	-12715
▁музы	-12716
ҭаразы	-12717
▁ҳхала	-12718
▁агыруа	-12719
▁амҽыша	-12720
▁аразҟы	-12721
▁Ҳабыџь	-12722
еремониа	-12723
▁изанааҭ	-12724
▁оумашәа	-12725
▁дышиашаз	-12726
▁аиҳабыреи	-12727
▁аиҳараӡак	-12728
▁имаҭәақәа	-12729
▁игәабзиара	-12730
▁аилатәараҿы	-12731
▁раԥхьаӡагьы	-12732
Схы	-12733
дыӷ	-12734
нау	-12735
хьо	-12736
бауа	-12737
▁зго	-12738
▁ҳад	-12739
нагоз	-12740
шьышь	-12741
▁Атур	-12742
▁Ииас	-12743
▁ибас	-12744
▁иубо	-12745
▁уххь	-12746
▁хьча	-12747
сҳәеит	-12748
хәақәа	-12749
▁еиҭал	-12750
▁анраҳа	-12751
▁зшьапы	-12752
▁иахьан	-12753
▁проект	-12754
▁шырҳәо	-12755
▁Ҭыжәба	-12756
▁иҵабырг	-12757
▁ааирԥшит	-12758
▁ирҿиамҭа	-12759
▁итапанча	-12760
▁ихьыԥшым	-12761
▁Абзиабара	-12762
▁изаамҭаны	-12763
▁машьынала	-12764
▁аҳәамҭақәа	-12765
▁аицлабрақәа	-12766
▁аиԥыларақәа	-12767
1.	-12768
▁ӷь	-12769
ергь	-12770
лина	-12771
қҳәа	-12772
ҩоит	-12773
▁умы	-12774
▁аԥеи	-12775
▁диеи	-12776
▁ишҭа	-12777
баӡеит	-12778
маақәа	-12779
хаҵоуп	-12780
ҳәалак	-12781
ԥхьарц	-12782
▁дуаҩы	-12783
▁еихыр	-12784
дәылҵыз	-12785
рыцҳара	-12786
▁дызҭам	-12787
▁ӷәӷәак	-12788
мкәараса	-12789
хынҳәырц	-12790
▁иҟынтәи	-12791
▁ҟасҵоит	-12792
дыруазгьы	-12793
▁атестқәа	-12794
▁аҟәҟәаҳәа	-12795
▁ркультура	-12796
▁аҭышәынтәа	-12797
▁арҿиамҭақәа	-12798
▁ахаҭабзиара	-12799
▁ақалақьқәеи	-12800
▁аҭҵаарадырра	-12801
4,	-12802
Ишы	-12803
мчы	-12804
аныз	-12805
сыла	-12806
хуеи	-12807
ԥало	-12808
ҩеиуа	-12809
ҳәало	-12810
▁Алик	-12811
▁Мыса	-12812
▁аныз	-12813
▁ҳацә	-12814
Москва	-12815
ҭыганы	-12816
ҵаареи	-12817
шьҭыхра	-12818
ҵыхәтәа	-12819
▁амехан	-12820
▁ауаҭах	-12821
▁иҟоума	-12822
▁еиҿкаау	-12823
▁рдыруан	-12824
▁уашьҭан	-12825
▁агәырӷьа	-12826
▁дахьынӡа	-12827
▁изеилкаа	-12828
▁ачымазцәа	-12829
▁аҵакыраҿы	-12830
▁дааҭгылан	-12831
▁жәытәнатә	-12832
▁амрагылара	-12833
▁~	-12834
ӡым	-12835
гӡан	-12836
лары	-12837
лашо	-12838
▁заҳ	-12839
▁меи	-12840
зиоуп	-12841
шаӡом	-12842
▁Ишәы	-12843
▁Тати	-12844
▁Ҳгәы	-12845
▁аграф	-12846
▁агәаӷ	-12847
▁аибар	-12848
▁дырзы	-12849
▁иҳәаа	-12850
▁ыҟами	-12851
ҳәарала	-12852
▁Хьрыԥс	-12853
▁ауатка	-12854
▁даниба	-12855
▁жәлари	-12856
▁иаҳдыр	-12857
▁илакҭа	-12858
▁лшьапы	-12859
лаԥшуеит	-12860
▁Ардашьыл	-12861
бл	-12862
шәх	-12863
▁АК	-12864
▁Чы	-12865
▁ие	-12866
муӡа	-12867
тизм	-12868
тира	-12869
қәкы	-12870
ҳәак	-12871
▁сԥа	-12872
зақәа	-12873
лозма	-12874
▁Наур	-12875
▁еины	-12876
неиуан	-12877
▁Шәааи	-12878
▁апара	-12879
▁еиҭаз	-12880
▁рылым	-12881
▁ссирк	-12882
▁Ҳаҭыр	-12883
гьангьа	-12884
гәалаир	-12885
ԥшуазар	-12886
▁Мазлоу	-12887
▁аџьныш	-12888
▁хланҵы	-12889
▁аԥсҭҳәа	-12890
▁имариам	-12891
▁здыруадаз	-12892
▁ишьақәдыр	-12893
▁иалагахьан	-12894
7,	-12895
oo	-12896
чыз	-12897
ҩыл	-12898
ерти	-12899
уаӡа	-12900
фикс	-12901
хьиа	-12902
▁Соу	-12903
уареи	-12904
хәашь	-12905
шуеит	-12906
ҵашәа	-12907
▁шмаҷ	-12908
▁ԥҵәа	-12909
лозгьы	-12910
сызшәа	-12911
▁еихар	-12912
▁иамыр	-12913
▁иаҳха	-12914
▁рқыҭа	-12915
▁ҳҳәар	-12916
▁ҽазны	-12917
шьҭихит	-12918
▁ахахьы	-12919
▁дигеит	-12920
▁кавказ	-12921
цхраауан	-12922
цәажәаны	-12923
▁анџьныр	-12924
▁лашарак	-12925
▁аиҭагара	-12926
▁акритика	-12927
▁Иерусалим	-12928
▁Лаҵарамза	-12929
▁аклассқәа	-12930
▁аҭӡамцқәа	-12931
▁агәыҳалалратә	-12932
▁адунеизегьтәи	-12933
ҟыр	-12934
▁Руа	-12935
▁Ухы	-12936
▁вер	-12937
▁Кьыр	-12938
▁уҳәо	-12939
дырырц	-12940
лаԥшны	-12941
ыргеит	-12942
▁иабаз	-12943
▁илзеи	-12944
хысуеит	-12945
ҳәақәаз	-12946
▁Ҟасҭеи	-12947
кызаҵәык	-12948
ҩаԥысуаз	-12949
▁аиашазы	-12950
▁анҭыҵгьы	-12951
▁иԥхьаӡон	-12952
▁аиқәшаҳаҭ	-12953
▁реимадара	-12954
▁рыҟазаара	-12955
маӡаныҟәгаҩ	-12956
▁абзиабареи	-12957
▁иахырҟьаны	-12958
рав	-12959
ԥаҳ	-12960
цәон	-12961
▁зыд	-12962
▁Ҟан	-12963
▁ҩык	-12964
▁ирын	-12965
▁раби	-12966
ҳалқәа	-12967
▁ааныз	-12968
▁днаха	-12969
▁дымца	-12970
▁сгәыӷ	-12971
▁ҟамло	-12972
ӡәӡәаны	-12973
▁ирзыҟа	-12974
аалакгьы	-12975
▁аҳаԥшьа	-12976
▁иҟалаша	-12977
▁шаҳаҭра	-12978
▁иақәшәеит	-12979
▁анапхгареи	-12980
▁иазгәарҭоит	-12981
▁рнапхгаҩцәа	-12982
▁Мрагыларатәи	-12983
ух	-12984
▁ҳу	-12985
жаӡа	-12986
лаин	-12987
▁Мыз	-12988
Убарҭ	-12989
быкәу	-12990
гадир	-12991
ҵахыр	-12992
▁ишҳа	-12993
гәарҭа	-12994
мадоуп	-12995
▁Шьрыф	-12996
▁амцар	-12997
▁дныла	-12998
баратәы	-12999
▁Абџьар	-13000
▁афорум	-13001
▁дааным	-13002
▁митәык	-13003
▁ԥҳәызбак	-13004
▁аанкылара	-13005
▁аҵыхәанӡа	-13006
▁иҭахызшәа	-13007
▁аиҳәшьцәеи	-13008
▁астатиақәа	-13009
▁ирыдҳәалоу	-13010
8).	-13011
Ахь	-13012
Исы	-13013
иар	-13014
алан	-13015
рҭеи	-13016
ҵааз	-13017
▁3:1	-13018
▁Мыс	-13019
▁ааҳ	-13020
▁хна	-13021
иҭеит	-13022
▁шәыш	-13023
▁иџьар	-13024
▁ныҟәы	-13025
▁амчқәа	-13026
гыларазы	-13027
▁исҭахым	-13028
▁аамҭагьы	-13029
▁ауадаҩра	-13030
▁удыруама	-13031
▁чымазара	-13032
▁авертолиот	-13033
▁еиқәышьшьы	-13034
▁Тҟәарчалтәи	-13035
Аҽы	-13036
кьи	-13037
оси	-13038
Егьи	-13039
маҟа	-13040
ԥшӡо	-13041
▁Нур	-13042
▁бар	-13043
▁реп	-13044
барак	-13045
отриа	-13046
хәырц	-13047
шәыжь	-13048
▁Оҭыр	-13049
▁анҵы	-13050
▁иибо	-13051
▁уахи	-13052
▁џьар	-13053
▁атран	-13054
▁иакыз	-13055
▁иаҳзы	-13056
▁убжьы	-13057
▁ԥсыуа	-13058
▁дықәыр	-13059
▁дҩахан	-13060
шьарақәа	-13061
▁ахәҭоуп	-13062
▁инаӡеит	-13063
▁ҳамҭакы	-13064
▁Иҟалазеи	-13065
▁авторцәа	-13066
▁инеиҳаны	-13067
▁ишыҟалаз	-13068
▁мҩаԥнагоит	-13069
нуп	-13070
шыл	-13071
антә	-13072
роза	-13073
ункт	-13074
▁Жәы	-13075
▁ҳла	-13076
абаза	-13077
гарак	-13078
▁ақьы	-13079
иҳәеит	-13080
ныҟәон	-13081
цәгьоу	-13082
▁еиӷьы	-13083
▁ҳаиԥш	-13084
кәызгьы	-13085
ҵуамызт	-13086
▁хықәкы	-13087
▁ҟадыџь	-13088
▁Ҳәарас	-13089
▁Беигәаа	-13090
▁акәымзи	-13091
▁игәҭакы	-13092
▁рмашьына	-13093
▁џьысшьон	-13094
▁ҟазшьала	-13095
▁даахьаҳәын	-13096
▁иазԥхьагәа	-13097
▁имҩаԥгахоит	-13098
Кь	-13099
цои	-13100
шҩы	-13101
гачам	-13102
ество	-13103
интер	-13104
▁ДЖәР	-13105
▁Изла	-13106
▁длыр	-13107
▁змыр	-13108
▁наҳа	-13109
Иарбан	-13110
ҳәабжь	-13111
▁аклуб	-13112
▁имаҳә	-13113
▁сашҭа	-13114
▁зхароу	-13115
▁уашьҭа	-13116
ныҟәгара	-13117
▁Аидгыла	-13118
▁Басариа	-13119
▁акәӡами	-13120
▁аҩбагьы	-13121
▁исҳәарц	-13122
▁иџьашьа	-13123
▁рыҿиара	-13124
▁уадаҩын	-13125
▁ҩынҩажәа	-13126
▁ӷәӷәақәа	-13127
▁рышьҭыбжь	-13128
ҟазаалакгьы	-13129
▁ахақәиҭтәра	-13130
Ле	-13131
ҽԥ	-13132
зис	-13133
как	-13134
қьыз	-13135
ԥылт	-13136
▁Жьа	-13137
▁Ком	-13138
▁аил	-13139
▁Кара	-13140
▁ашьаб	-13141
▁деиҵа	-13142
▁шьаҭа	-13143
зхәыцит	-13144
хәрақәа	-13145
▁амшгьы	-13146
▁итәала	-13147
▁Шьазина	-13148
▁агхақәа	-13149
▁аусуцәа	-13150
▁аҵаиҩит	-13151
▁еиқәшәа	-13152
▁иарбоуп	-13153
хәмаруеит	-13154
▁иааигеит	-13155
ҭахызаргьы	-13156
▁ипоезиатә	-13157
▁амандарина	-13158
10	-13159
3,	-13160
ико	-13161
▁Ыы	-13162
енда	-13163
ӡырц	-13164
Ашана	-13165
бзиоу	-13166
ҭбаау	-13167
ҽеила	-13168
▁Маџь	-13169
▁акаԥ	-13170
▁фҩык	-13171
кәушәа	-13172
▁Луган	-13173
▁Шьмаф	-13174
▁еиҵбы	-13175
▁зхатә	-13176
▁иҭәын	-13177
▁шагыз	-13178
зынтәык	-13179
цхраарц	-13180
▁ажәахә	-13181
▁арыцхә	-13182
▁дааскь	-13183
▁зхатәы	-13184
▁ирбоит	-13185
▁сыхшыҩ	-13186
залхратә	-13187
шәныртәа	-13188
▁зыхьӡыз	-13189
▁инақәыр	-13190
▁иҟәаҟәа	-13191
▁иҵегьгьы	-13192
▁лахьынҵа	-13193
шәынҭрақәа	-13194
▁анапхгаҩцәа	-13195
▁ианакәызаалак	-13196
Дан	-13197
аик	-13198
итр	-13199
хьал	-13200
ӷоуп	-13201
гылаҩ	-13202
ҳәарак	-13203
▁иауам	-13204
▁иҳана	-13205
чальник	-13206
▁Мамзар	-13207
▁ашьаҟа	-13208
▁дунеик	-13209
▁еиӷьын	-13210
▁раамҭа	-13211
▁срыцҳа	-13212
▁ахалара	-13213
▁хабарда	-13214
▁қыҭақәа	-13215
ӷәӷәаразы	-13216
▁Кәарацхь	-13217
▁Мчыбжьык	-13218
▁Салаҟаиа	-13219
▁аладатәи	-13220
▁афранцыз	-13221
▁раԥхьаҟа	-13222
▁формақәа	-13223
2,	-13224
8,	-13225
жит	-13226
мет	-13227
сим	-13228
хага	-13229
ҭары	-13230
ҵәын	-13231
▁Чер	-13232
▁дуу	-13233
▁зҽы	-13234
аргаз	-13235
▁Шоҭа	-13236
▁дыгә	-13237
▁разҟ	-13238
шазгьы	-13239
▁еиҿыз	-13240
▁исзеи	-13241
хәыҭхәы	-13242
▁Ақыҭан	-13243
▁Марица	-13244
▁закәыз	-13245
▁Аҭҵаара	-13246
▁усзуҩцәа	-13247
▁иааигәаны	-13248
▁мацарагьы	-13249
▁акрааҵуеит	-13250
▁ахыркәшара	-13251
▁дааҩналеит	-13252
▁еиликаауан	-13253
▁имҩаԥыргоз	-13254
▁мраҭашәара	-13255
▁ргәабзиара	-13256
▁аминистрцәа	-13257
▁реиқәырхара	-13258
▁ԥсҭазаараҿы	-13259
or	-13260
цен	-13261
гьиа	-13262
инеи	-13263
ыреи	-13264
▁рби	-13265
▁уах	-13266
▁шҭа	-13267
Џьара	-13268
гмызт	-13269
тәреи	-13270
цаҳәа	-13271
чҳауа	-13272
ҭҳара	-13273
▁Илиа	-13274
▁исас	-13275
▁рнап	-13276
анрқәа	-13277
бымҵан	-13278
ланӡиа	-13279
▁Шамил	-13280
▁анцоз	-13281
▁ацқьа	-13282
▁шаҳаҭ	-13283
скурсиа	-13284
▁быжьба	-13285
▁зҭахым	-13286
▁инагӡа	-13287
хьчаҩцәа	-13288
▁сыдгьыл	-13289
▁Аҩадатәи	-13290
▁абзарбзан	-13291
▁Ажәабжьқәа	-13292
▁Пицундатәи	-13293
▁аобиектқәа	-13294
▁ҳашәҟәыҩҩцәа	-13295
ar	-13296
абри	-13297
заам	-13298
мика	-13299
ԥхеи	-13300
▁Мас	-13301
озгьы	-13302
харак	-13303
▁Убыс	-13304
▁зҳәа	-13305
▁умбо	-13306
шәуеит	-13307
ҷҷаҳәа	-13308
▁амуит	-13309
▁гьежь	-13310
▁егьыс	-13311
▁еилым	-13312
▁зтәыз	-13313
▁урыла	-13314
▁Ҭырқә	-13315
▁ахьына	-13316
▁бзиахә	-13317
▁ҳаннеи	-13318
▁автоном	-13319
▁акаамеҭ	-13320
▁машәырла	-13321
▁акрызҵазкуа	-13322
пыр	-13323
Уаха	-13324
ижьы	-13325
ҭиуа	-13326
ԥшла	-13327
▁Лхы	-13328
▁уса	-13329
антиа	-13330
ҩашьо	-13331
ҭакны	-13332
ҵаӡом	-13333
▁ахьу	-13334
▁иуал	-13335
анханы	-13336
шылеит	-13337
ҟаиҵоз	-13338
▁ажәар	-13339
▁аҟәыд	-13340
▁изкыз	-13341
▁иҽына	-13342
▁лҵшәа	-13343
▁сеиқә	-13344
▁хылԥа	-13345
▁ҭыхны	-13346
▁ҽаӡәы	-13347
гарашәа	-13348
▁Ажьиба	-13349
▁иалхыз	-13350
▁рыжәлар	-13351
▁станциа	-13352
▁шықәсқәак	-13353
▁изакәызаалак	-13354
▁Қырҭтәылатәи	-13355
▁иазеиҭалҳәеит	-13356
мц	-13357
қан	-13358
▁Ты	-13359
▁нҭ	-13360
кьоу	-13361
одиа	-13362
убер	-13363
ҭыгә	-13364
▁аге	-13365
▁шсы	-13366
банӡа	-13367
шькәа	-13368
ҵаарц	-13369
ԥшшәа	-13370
ԥшәым	-13371
▁Аацы	-13372
▁ачыс	-13373
хникеи	-13374
ҵарала	-13375
▁Аԥшьа	-13376
▁Гәара	-13377
▁азгьы	-13378
▁ихашҭ	-13379
гымхеит	-13380
хьаԥшит	-13381
хьымӡаз	-13382
▁Аусқәа	-13383
▁Аԥсныи	-13384
▁амедал	-13385
▁ақыҭаҿ	-13386
▁дықәын	-13387
▁иаагоу	-13388
▁рдоуҳа	-13389
▁саркьа	-13390
беижьҭеи	-13391
▁анҵамҭа	-13392
▁илеиуан	-13393
▁ракәӡам	-13394
▁рышәҟәы	-13395
▁рӷьырак	-13396
▁арахьгьы	-13397
▁ахынҳәра	-13398
▁схаҭагьы	-13399
▁ианаамҭаз	-13400
▁иналагеит	-13401
▁ахәаахәҭра	-13402
▁иаадыруеит	-13403
▁аусбарҭақәа	-13404
фф	-13405
дац	-13406
жәан	-13407
иран	-13408
лахә	-13409
▁Аҟа	-13410
зааиз	-13411
ҩашьа	-13412
▁асра	-13413
Ажәытә	-13414
шьҭырц	-13415
ҭахьан	-13416
▁ҩышьҭ	-13417
▁ҳахьа	-13418
вагылаз	-13419
гәышьон	-13420
еибакәу	-13421
▁авагон	-13422
▁Ҭырбеи	-13423
▁анаплак	-13424
хынҳәразы	-13425
▁сентиабр	-13426
▁дҩагыланы	-13427
▁иаҿырԥшны	-13428
▁анагӡаразы	-13429
▁атехникатә	-13430
▁асахьаҭыхыҩцәа	-13431
еб	-13432
вал	-13433
наҵ	-13434
там	-13435
ҽҽа	-13436
Аиеи	-13437
куеи	-13438
шуан	-13439
ҩала	-13440
▁Баа	-13441
▁Дас	-13442
териа	-13443
ырцыр	-13444
ҵкьыс	-13445
▁Цыгә	-13446
▁иаам	-13447
▁рҽан	-13448
хысуаз	-13449
▁артил	-13450
▁дганы	-13451
▁иҳәоу	-13452
гәамԥха	-13453
▁Ерцахә	-13454
▁Никара	-13455
▁даахан	-13456
екциақәа	-13457
▁аиҭакра	-13458
▁дахьцаз	-13459
инспекциа	-13460
▁Чамагәуа	-13461
▁дҩаҵҟьан	-13462
▁занашьоу	-13463
▁комплекс	-13464
▁усҳәарҭа	-13465
▁нанҳәамза	-13466
▁хьанҭақәа	-13467
▁ахантәаҩыс	-13468
▁схәыцрақәа	-13469
1,	-13470
аж	-13471
рол	-13472
рыда	-13473
шәыл	-13474
▁лҿа	-13475
▁саҳ	-13476
▁улы	-13477
еҩҳәа	-13478
иасит	-13479
ҵарыз	-13480
ӷеимш	-13481
▁Семи	-13482
▁Сыла	-13483
▁арит	-13484
▁иуаз	-13485
ламҳәа	-13486
ҟароуп	-13487
▁Џьума	-13488
▁Еиҭах	-13489
▁амцхә	-13490
▁аԥшқа	-13491
шьахеит	-13492
Ҳәарада	-13493
▁ахадас	-13494
▁аҽаӡәы	-13495
▁дахьцоз	-13496
▁еиқәзыр	-13497
▁еиҿкааз	-13498
▁Амаршьан	-13499
▁аҽеиҭана	-13500
▁ҿырҳәала	-13501
▁америкатәи	-13502
▁иаалырҟьан	-13503
▁Ҳәынҭқарра	-13504
Ди	-13505
”.	-13506
Иҟоу	-13507
иада	-13508
қьуа	-13509
ԥаҿы	-13510
▁Пат	-13511
▁газ	-13512
натор	-13513
шьҭуп	-13514
▁здыз	-13515
▁игоу	-13516
▁иҭна	-13517
▁иҽир	-13518
аагара	-13519
▁еиҿна	-13520
▁рҽааи	-13521
▁Ԥсҳәы	-13522
▁Италиа	-13523
▁Шьаҳан	-13524
▁рыҭаны	-13525
▁џьушьҭ	-13526
▁иазгәаҳ	-13527
▁иаԥиҵаз	-13528
▁акалашәа	-13529
▁Анапхгара	-13530
▁ԥсабарала	-13531
▁Апрезидент	-13532
гәалаҳаршәап	-13533
мыӡӷ	-13534
плом	-13535
▁Ары	-13536
▁хир	-13537
зыҟаи	-13538
циала	-13539
цәаҳа	-13540
▁адем	-13541
▁амуа	-13542
▁зҵаз	-13543
▁ҳаиа	-13544
ҵыхәеи	-13545
▁дыкны	-13546
▁дырҿа	-13547
▁ишьра	-13548
▁ԥсаҭа	-13549
▁алырша	-13550
▁ҟазҵоз	-13551
▁адашьма	-13552
▁ирацәан	-13553
▁иҟаларц	-13554
▁ӷәӷәоуп	-13555
▁аизараҿы	-13556
▁издырӡом	-13557
▁ишәарҭоу	-13558
▁ҭоурыхтә	-13559
▁аамҭазгьы	-13560
▁иқәгылеит	-13561
▁даақәыԥсычҳаит	-13562
Иаб	-13563
сот	-13564
кьын	-13565
тцәа	-13566
шуаз	-13567
ӡуан	-13568
жәуан	-13569
наҭаз	-13570
федра	-13571
хьӡаз	-13572
шьаҭа	-13573
ҭәоит	-13574
ҵәыуа	-13575
▁Идыр	-13576
▁Иџьа	-13577
▁дима	-13578
▁ицар	-13579
▁уақә	-13580
▁ҳаӷа	-13581
▁ԥшаа	-13582
▁аҭҵаа	-13583
▁иатәыз	-13584
▁идырит	-13585
▁инасыԥ	-13586
▁ҳаманы	-13587
▁ахсаала	-13588
▁аҭахума	-13589
▁аҽакала	-13590
▁днаԥшит	-13591
▁сыҟаӡам	-13592
▁Ԥақәашь	-13593
▁Женеватәи	-13594
▁дынҭалеит	-13595
▁ныҟаиҵеит	-13596
▁иааркьаҿны	-13597
▁ихаҭыԥуаҩыс	-13598
▁дақәшаҳаҭхеит	-13599
сгәы	-13600
▁Дзы	-13601
▁маҵ	-13602
▁цца	-13603
шәыла	-13604
▁Инар	-13605
▁Ишәа	-13606
▁иааг	-13607
▁лҭах	-13608
▁хьыр	-13609
▁шәҽа	-13610
▁Ҭынч	-13611
бзианы	-13612
кәшоит	-13613
харатә	-13614
▁ауриа	-13615
▁аҵоуп	-13616
▁илаба	-13617
▁инақә	-13618
▁ҳазҿу	-13619
▁ахәцәа	-13620
▁аҳаҳаи	-13621
▁рырахә	-13622
▁рыҽдыр	-13623
▁шьҭахь	-13624
▁акымкәа	-13625
▁цәыкәбар	-13626
▁даҽазныкгьы	-13627
▁Ҭырқәтәылатәи	-13628
ама	-13629
ҳир	-13630
▁Ту	-13631
▁рс	-13632
бама	-13633
лҟьа	-13634
ҩбак	-13635
▁сум	-13636
укатә	-13637
умент	-13638
хьаҟа	-13639
цәыҵы	-13640
▁еиҿи	-13641
ҭакқәа	-13642
ҭиуеит	-13643
ҳәогьы	-13644
▁аидыс	-13645
▁аҳҭны	-13646
▁доллар	-13647
▁иаазыр	-13648
▁иқәнар	-13649
▁иҳәара	-13650
▁рыҽқәа	-13651
▁шымҩаԥ	-13652
▁аарԥшны	-13653
▁авокзал	-13654
▁арцәара	-13655
▁асулҭан	-13656
▁дааганы	-13657
дырӡомызт	-13658
▁амчрақәа	-13659
▁даалаган	-13660
▁акәымкәан	-13661
▁реилкаара	-13662
▁иаҿагыланы	-13663
▁рҳәамҭақәа	-13664
▁иацхраауеит	-13665
Аҽ	-13666
зт	-13667
змаа	-13668
▁чыс	-13669
▁ҳац	-13670
шәага	-13671
ԥшьқәа	-13672
▁икыла	-13673
▁ишубо	-13674
▁ҳақәа	-13675
гылозар	-13676
▁инықәи	-13677
пектакль	-13678
▁агәахьы	-13679
▁ажәаԥҟа	-13680
▁ҵабыргны	-13681
▁ахаҿсахьақәа	-13682
▁●	-13683
зми	-13684
лот	-13685
шру	-13686
Иааи	-13687
барын	-13688
бжьан	-13689
гозеи	-13690
гьала	-13691
ербаи	-13692
жәуаз	-13693
ынҵры	-13694
џьари	-13695
ҳабын	-13696
▁махә	-13697
▁ушьа	-13698
▁ҩымз	-13699
ордина	-13700
тикқәа	-13701
хыцқәа	-13702
ҩагьых	-13703
ҳәазар	-13704
ҵысуан	-13705
ҵәҟьоз	-13706
▁ирбон	-13707
▁данықә	-13708
▁иааира	-13709
▁иҭакны	-13710
▁премиа	-13711
▁аҭыӡшәа	-13712
▁иакәӡам	-13713
▁инарықә	-13714
▁иповест	-13715
▁мариоуп	-13716
хәаԥшрала	-13717
▁бызшәаҿы	-13718
▁акырџьара	-13719
▁рааигәара	-13720
▁ҟазшьақәа	-13721
▁Шеварднаӡе	-13722
▁игәалаҟара	-13723
▁Ауаҩытәыҩса	-13724
АА	-13725
нба	-13726
пык	-13727
ӡап	-13728
ароу	-13729
бари	-13730
овеи	-13731
▁Маҷ	-13732
▁дыԥ	-13733
▁ҩар	-13734
гәӡит	-13735
мырза	-13736
шәуан	-13737
ҵәарц	-13738
▁асиа	-13739
▁еиҵы	-13740
▁мҩан	-13741
▁нкыд	-13742
гылаша	-13743
ызеишь	-13744
▁аныҟа	-13745
▁иахәа	-13746
▁инасы	-13747
▁лҭаца	-13748
▁асезон	-13749
▁ицәыри	-13750
▁шиакәу	-13751
▁аацәыри	-13752
▁ахьтәаз	-13753
▁еилыхха	-13754
▁иахылҿи	-13755
▁концерт	-13756
▁аҵарақәа	-13757
▁ихынҳәит	-13758
▁Еиуеиԥшым	-13759
▁атрагедиа	-13760
▁ахьынӡана	-13761
еволиуциатә	-13762
▁рымаӡамкәа	-13763
▁агәҭынчымра	-13764
▁ҳаицәажәара	-13765
жы	-13766
▁Ел	-13767
крет	-13768
▁Ныр	-13769
жьоит	-13770
ополь	-13771
талтә	-13772
ххоит	-13773
ҭакыз	-13774
ҳақәа	-13775
ҳәазо	-13776
жәҩани	-13777
оуааит	-13778
рантәи	-13779
ӡырҩит	-13780
ԥышәар	-13781
▁еиҭоу	-13782
▁рԥыза	-13783
▁смаҳа	-13784
▁уиоуп	-13785
улакгьы	-13786
▁Иракли	-13787
▁агәамч	-13788
▁асҵәҟьа	-13789
▁дҭалоит	-13790
▁изинқәа	-13791
▁уинахыс	-13792
▁дааигеит	-13793
▁ихымԥада	-13794
▁акарантин	-13795
▁атрадициа	-13796
▁ибзиабара	-13797
▁ааникылеит	-13798
▁еиқәыршәаны	-13799
дыҟ	-13800
▁АИ	-13801
бина	-13802
ниеи	-13803
хныш	-13804
▁Аиа	-13805
▁гра	-13806
канал	-13807
ххьан	-13808
▁Исым	-13809
▁саҵа	-13810
▁ҳцап	-13811
тәузеи	-13812
тәызар	-13813
Ҵабырг	-13814
▁Араса	-13815
▁аетап	-13816
▁дырра	-13817
▁рбара	-13818
▁рзыҟа	-13819
хәарҭам	-13820
▁аҭыԥаҿ	-13821
▁мҩаԥаа	-13822
▁рахәыц	-13823
▁рсахьа	-13824
ферендум	-13825
ҵарбақәа	-13826
▁Арсалиа	-13827
▁иӷәӷәоу	-13828
▁ҳаҭырла	-13829
зыӡырҩуаз	-13830
▁Аԥҳәызба	-13831
▁Усҟантәи	-13832
▁агәаӷьра	-13833
▁асахьаҭы	-13834
▁ахҵәацәа	-13835
▁ралагалара	-13836
▁жәеинраалақәа	-13837
Аз	-13838
gra	-13839
Ина	-13840
ҩон	-13841
ҿаԥш	-13842
▁Про	-13843
▁сиз	-13844
▁ҭыҵ	-13845
лакәа	-13846
ҭиуаз	-13847
ԥазар	-13848
▁амин	-13849
▁парк	-13850
▁рмоу	-13851
▁хышә	-13852
путник	-13853
тәалаз	-13854
ҵәахуа	-13855
▁Аҳмаҭ	-13856
▁аҩхаа	-13857
▁иҳала	-13858
▁хьаак	-13859
кәымпыл	-13860
▁ахықәа	-13861
▁дрыцны	-13862
▁ианцоз	-13863
▁иҳалшо	-13864
гәырӷьоз	-13865
дтәалеит	-13866
▁Иабаҟоу	-13867
▁алеишәа	-13868
▁изҵаара	-13869
▁ихаҭара	-13870
▁рҵеицәа	-13871
▁афолькло	-13872
▁рацәаҩын	-13873
▁саналага	-13874
▁даныхынҳә	-13875
▁узымдыруа	-13876
гылазаашьеи	-13877
▁азмырхакәа	-13878
▁Аԥсуаҭҵааратә	-13879
1-	-13880
▁XX	-13881
▁мо	-13882
▁ҭә	-13883
елли	-13884
етта	-13885
▁АУН	-13886
▁Уиа	-13887
▁збо	-13888
нахуа	-13889
ҵааны	-13890
▁дмыр	-13891
кӡакәа	-13892
ҷкәыкә	-13893
▁Делба	-13894
▁Шьари	-13895
▁адауы	-13896
▁еицаҳ	-13897
▁ҭакәи	-13898
хьаԥшра	-13899
▁аҽазны	-13900
▁ирылан	-13901
гылазгьы	-13902
▁быжьҩык	-13903
▁сыԥҳәыс	-13904
▁дзышьҭаз	-13905
▁ихыркәша	-13906
▁ицәырҵуа	-13907
▁усҟангьы	-13908
▁ахьхьаҳәа	-13909
▁аусмҩаԥгатә	-13910
ици	-13911
Ҳаз	-13912
естр	-13913
скьы	-13914
ҵаан	-13915
▁III	-13916
▁ным	-13917
Мамоу	-13918
гӡарц	-13919
▁Аинв	-13920
▁исар	-13921
▁иуеи	-13922
▁Қьыр	-13923
хьуеит	-13924
ҷыданы	-13925
▁иахым	-13926
▁ишцоз	-13927
патриот	-13928
царақәа	-13929
чымазаҩ	-13930
▁агәазы	-13931
▁башоуп	-13932
▁иныҳәа	-13933
▁шаҭаху	-13934
хәыҷқәеи	-13935
шықәсала	-13936
▁кәашара	-13937
▁ҟәымшәы	-13938
▁Кьыршьал	-13939
▁Иаарласны	-13940
▁адраматур	-13941
▁иааныжьны	-13942
▁Цәыббрамза	-13943
▁иалагаанӡа	-13944
▁апациентцәа	-13945
оре	-13946
Иахь	-13947
анах	-13948
лышә	-13949
стол	-13950
ԥоуп	-13951
▁Раи	-13952
▁угә	-13953
зарма	-13954
шоура	-13955
▁исыц	-13956
▁схәы	-13957
ааԥшит	-13958
гәаӷьы	-13959
хәында	-13960
шәалеи	-13961
ықәшәа	-13962
▁Баҭым	-13963
▁агеит	-13964
▁ақәар	-13965
▁гәашә	-13966
▁иасуа	-13967
▁иргәы	-13968
гьежьра	-13969
ҳәаанӡа	-13970
▁Џьамал	-13971
▁дагеит	-13972
▁уҷкәын	-13973
▁шракәу	-13974
▁Ҭарашь	-13975
▁ҳаибар	-13976
еиқәаҵәа	-13977
кьыԥхьын	-13978
▁Афедера	-13979
▁акаруаҭ	-13980
▁илдыруан	-13981
▁азинхьчаратә	-13982
▁административтә	-13983
ав	-13984
▁;	-13985
ады	-13986
змыр	-13987
хома	-13988
▁имш	-13989
▁ура	-13990
аурыс	-13991
гхеит	-13992
дарак	-13993
класс	-13994
ҩынтә	-13995
ӷырӡы	-13996
ԥагьа	-13997
▁аиас	-13998
▁зшьа	-13999
▁иҭын	-14000
▁лага	-14001
▁рыуа	-14002
▁ԥшак	-14003
руднич	-14004
ҟалоит	-14005
▁Атури	-14006
▁Уахык	-14007
▁ианыл	-14008
▁уахьа	-14009
▁ҟаҵан	-14010
баандаҩ	-14011
бзиареи	-14012
шәараны	-14013
ьыргәал	-14014
ҳәалоит	-14015
▁жәҩани	-14016
▁заҟаҩы	-14017
▁иааҩна	-14018
▁ишыҟам	-14019
▁Ҟарачы	-14020
▁асқьала	-14021
▁даҽакуп	-14022
▁еиқәнар	-14023
▁иусумҭа	-14024
▁иҟоугьы	-14025
▁лыӡбахә	-14026
▁ахәбатәи	-14027
▁хацыркуп	-14028
▁Ахақәиҭра	-14029
▁рыдиныҳәалеит	-14030
Ат	-14031
Ии	-14032
▁VI	-14033
▁зҿ	-14034
хыла	-14035
ҭқар	-14036
▁Иқә	-14037
▁Лив	-14038
▁сим	-14039
жәтәи	-14040
чагәа	-14041
шьыра	-14042
▁Аӷба	-14043
▁ахац	-14044
бахьан	-14045
шьареи	-14046
▁рыбжа	-14047
лаԥшуан	-14048
▁аҟарул	-14049
▁дымнеи	-14050
▁иалнар	-14051
▁иатәуп	-14052
▁сакәын	-14053
▁дырҩегь	-14054
▁игәхьаа	-14055
▁ицәеижь	-14056
▁команда	-14057
▁лакәқәа	-14058
▁хаҿсахьа	-14059
▁ацәгьоура	-14060
▁иааидкыланы	-14061
▁ирыԥхьаӡоит	-14062
сак	-14063
хур	-14064
цац	-14065
ыха	-14066
▁33	-14067
анха	-14068
маӡа	-14069
▁Вор	-14070
анџьа	-14071
аргоз	-14072
блара	-14073
лиута	-14074
▁Гәыԥ	-14075
▁Зури	-14076
▁абыс	-14077
▁лыда	-14078
арԥазы	-14079
мышҭуа	-14080
▁Аџьар	-14081
▁Аҭаца	-14082
▁дамыр	-14083
▁ҿыцха	-14084
камбашь	-14085
ыртәыла	-14086
▁Асеиԥш	-14087
▁аԥацха	-14088
▁аанарго	-14089
▁адулара	-14090
▁ирызкыз	-14091
▁рдоктор	-14092
▁Ҟабарда	-14093
▁аҭоурыхи	-14094
▁аԥсшәахь	-14095
▁абзиарақәа	-14096
ақ	-14097
шап	-14098
ҵиа	-14099
дкыл	-14100
▁Ақә	-14101
▁аму	-14102
▁уда	-14103
гәҳәа	-14104
зыраз	-14105
ҳәынҭ	-14106
▁анҭа	-14107
▁шәҿы	-14108
ҿҳәаша	-14109
▁Аицла	-14110
▁Горки	-14111
▁Маниа	-14112
▁ааҳар	-14113
▁ачуан	-14114
▁Бзиала	-14115
▁анорма	-14116
▁еизгоу	-14117
▁цәаныр	-14118
ааирақәа	-14119
ларшәара	-14120
▁аинвали	-14121
▁ахырхар	-14122
▁еиҵыхны	-14123
▁иаҳауан	-14124
▁иҳараку	-14125
▁уажәыгь	-14126
▁сшьапқәа	-14127
зааҭгылоит	-14128
▁аныҟәгара	-14129
▁иацәыхара	-14130
▁телехәаԥшра	-14131
бых	-14132
икын	-14133
▁Агр	-14134
▁амҵ	-14135
лаӡом	-14136
ранда	-14137
ҳәуан	-14138
ҵәины	-14139
▁зыԥс	-14140
Аԥшәма	-14141
кыроуп	-14142
▁Ҭамел	-14143
арыжьит	-14144
еспубли	-14145
▁ашьхар	-14146
Ахәыҷқәа	-14147
▁иҟаиҵоз	-14148
▁ҵарауаҩ	-14149
▁Аҟәантәи	-14150
▁Аҷандара	-14151
▁аенергет	-14152
▁еиқәҵаны	-14153
▁иаанагом	-14154
▁ражәақәа	-14155
▁зыбзоуроу	-14156
▁иахагылаз	-14157
▁иусумҭақәа	-14158
ырҭо	-14159
▁АКХ	-14160
▁Аар	-14161
▁Хыш	-14162
▁икә	-14163
▁уҿа	-14164
етатә	-14165
ҳәаау	-14166
ҵашьа	-14167
▁Иала	-14168
▁ахаа	-14169
▁иныс	-14170
▁лҽыл	-14171
▁сыда	-14172
гәыӷуа	-14173
▁Гарри	-14174
▁ахьӡи	-14175
▁гәлиа	-14176
▁иазаа	-14177
▁усзуҩ	-14178
▁ухаҿы	-14179
▁ҳнеит	-14180
▁ахаара	-14181
▁рылахь	-14182
▁сшыҟоу	-14183
▁улымҳа	-14184
електрон	-14185
ҟазаалак	-14186
▁иаҭааит	-14187
хәаԥшышьа	-14188
шьҭуамызт	-14189
▁изларҳәо	-14190
▁иԥырхага	-14191
қәгәыӷуеит	-14192
▁аԥсуаагьы	-14193
▁имҩаԥысуан	-14194
▁аминистрреи	-14195
16	-14196
шхы	-14197
ҿыс	-14198
▁ГА	-14199
заны	-14200
хцәы	-14201
шкәа	-14202
▁20-	-14203
▁Пет	-14204
аиҿак	-14205
лҵоит	-14206
ремль	-14207
рылаз	-14208
▁сыжә	-14209
▁ҩыза	-14210
кәшоуп	-14211
ӡырҩра	-14212
▁Сашьа	-14213
▁адыга	-14214
▁аусеи	-14215
▁дааҵа	-14216
▁маӡак	-14217
▁реиба	-14218
▁хәаша	-14219
▁ҳәара	-14220
▁ҽеила	-14221
гәамҵуа	-14222
мызҭгьы	-14223
▁амҩаҿы	-14224
▁арбану	-14225
▁дызмаз	-14226
▁злаҟоу	-14227
▁Ҳаџьым	-14228
▁ажәаҳәа	-14229
▁сыԥшәма	-14230
▁ҳазхәыц	-14231
▁аконкурс	-14232
▁ахьшьцәа	-14233
▁жәларқәа	-14234
▁шьақәдыр	-14235
▁агәыбылра	-14236
▁изакәызеи	-14237
▁ркандидат	-14238
▁Белоруссиа	-14239
▁ианыԥшуеит	-14240
▁Рџьынџьтәылатә	-14241
▁P	-14242
6).	-14243
Џьа	-14244
кылс	-14245
ныха	-14246
чала	-14247
▁Сус	-14248
▁Хра	-14249
рышьа	-14250
шәкәа	-14251
▁Араб	-14252
▁жанр	-14253
▁изыл	-14254
▁шәҭы	-14255
▁ҵаны	-14256
▁ԥшра	-14257
Ашьыжь	-14258
роузеи	-14259
рыцқьа	-14260
цәкьыс	-14261
▁Амина	-14262
▁Арахә	-14263
▁иазоу	-14264
гәаԥхаз	-14265
бызшәала	-14266
гылатәуп	-14267
ҟаҵаҩцәа	-14268
▁абжьқәа	-14269
▁дындәыл	-14270
▁ирдыруа	-14271
▁харантәи	-14272
▁Иԥсҭазаара	-14273
▁азакәанқәа	-14274
▁анышәынҭра	-14275
▁информациа	-14276
зеилкаауамызт	-14277
▁Иазгәаҭатәуп	-14278
▁дазааҭгылеит	-14279
ныи	-14280
ттә	-14281
арга	-14282
баӡа	-14283
миот	-14284
троп	-14285
ҭәар	-14286
ҳмыр	-14287
анкыл	-14288
визор	-14289
зуреи	-14290
▁Еила	-14291
▁иира	-14292
▁ркон	-14293
▁узаа	-14294
▁хәым	-14295
гаӡеит	-14296
цаҩцәа	-14297
▁апери	-14298
▁дицны	-14299
▁иазын	-14300
▁ирыди	-14301
▁ишьҭи	-14302
▁рыԥша	-14303
едалқәа	-14304
оциалтә	-14305
▁амҩахь	-14306
▁асыԥса	-14307
▁ҳҿынаҳ	-14308
дидатура	-14309
путатцәа	-14310
▁иаарлас	-14311
▁иргылан	-14312
▁сылшоит	-14313
▁алагамҭа	-14314
▁ақәҿиара	-14315
▁илеиуеит	-14316
▁рмилаҭтә	-14317
▁раҳасабала	-14318
▁Хьымкәараса	-14319
▁еиҿкаарақәа	-14320
▁рхаҿсахьақәа	-14321
▁Ҭырқәтәылантәи	-14322
беҭ	-14323
шаҳ	-14324
Матф	-14325
гӡом	-14326
кәыт	-14327
лани	-14328
уааз	-14329
цәоз	-14330
ызба	-14331
ҟәан	-14332
ҭахо	-14333
▁500	-14334
ҭакәа	-14335
ҭыхны	-14336
ҿынтә	-14337
▁дкыд	-14338
▁парт	-14339
▁Ҵыԥх	-14340
мыҭбеи	-14341
ӡароуп	-14342
▁Абанк	-14343
▁ашәак	-14344
▁дааҩа	-14345
▁дҭынч	-14346
▁иаҳир	-14347
▁шимаз	-14348
елиаԥҳа	-14349
кылакәа	-14350
ропатәи	-14351
хәаԥшып	-14352
▁Аиашаз	-14353
▁абнахь	-14354
▁илҳәоз	-14355
▁лаӷырӡ	-14356
▁Риҵатәи	-14357
▁аизҳазы	-14358
▁истатиа	-14359
▁рыҟнытә	-14360
▁Аӡҩыбжьа	-14361
▁ззырҳәоз	-14362
▁хаҭарнак	-14363
▁агәаҟрақәа	-14364
▁ашәарыцара	-14365
▁аринахысгьы	-14366
].	-14367
Амза	-14368
кәац	-14369
лырша	-14370
ырҭәа	-14371
қьаад	-14372
ԥацәа	-14373
▁Даны	-14374
▁агьы	-14375
▁ачам	-14376
▁аҭам	-14377
▁суаз	-14378
▁ҳтәы	-14379
бусқәа	-14380
ԥсыреи	-14381
▁икәша	-14382
▁рҵаҩыс	-14383
ҟаҵәҟьоу	-14384
▁араиком	-14385
▁ашышкам	-14386
▁иаҭахыз	-14387
зааигәоуп	-14388
▁редактор	-14389
коллегацәа	-14390
▁азгәаҭара	-14391
▁аиҭаҳәара	-14392
▁ицәырҵуеит	-14393
▁Изхысҳәаауа	-14394
▁ақәҿиарақәа	-14395
▁аԥшәмаԥҳәыс	-14396
▁аҳаирпланқәа	-14397
Мам	-14398
аԥс	-14399
дас	-14400
ертә	-14401
мбул	-14402
ориг	-14403
шәӡа	-14404
ҽааи	-14405
▁еиб	-14406
▁кур	-14407
▁ԥыс	-14408
ариал	-14409
ладыр	-14410
легиа	-14411
хханы	-14412
ххара	-14413
ҳәази	-14414
▁Абду	-14415
▁Апол	-14416
▁Даҭа	-14417
▁иҭыс	-14418
▁ҳакә	-14419
▁ҳзын	-14420
▁ҳәса	-14421
ахәҭра	-14422
▁ахьыс	-14423
▁далга	-14424
▁ишьам	-14425
ҳаракны	-14426
▁Логәуа	-14427
▁насҭха	-14428
▁усумҭа	-14429
▁Израиль	-14430
▁иахәаԥш	-14431
▁иахәеит	-14432
▁ицәажәа	-14433
▁хәҭақәа	-14434
▁аусуратә	-14435
▁даныҟала	-14436
▁дашьҭоуп	-14437
▁иаанагаз	-14438
▁ирыбжьоу	-14439
▁леиҳәеит	-14440
▁ҳхәыҷқәа	-14441
▁ахьыҟалаз	-14442
▁аԥсабареи	-14443
▁Мраҭашәара	-14444
▁аиҿкаарақәа	-14445
▁материалқәа	-14446
18	-14447
▁Гы	-14448
Уахь	-14449
поет	-14450
ԥхны	-14451
▁Џыр	-14452
салам	-14453
хшоуп	-14454
цҳауа	-14455
▁Иоси	-14456
▁ануп	-14457
▁деим	-14458
▁иназ	-14459
▁луан	-14460
▁сҽыс	-14461
▁шәпа	-14462
▁ҳшьа	-14463
торцәа	-14464
ччабжь	-14465
шьҭалт	-14466
ҟырҳәа	-14467
▁зызку	-14468
▁ироуз	-14469
▁мҩакы	-14470
▁рыҭан	-14471
▁сымоу	-14472
▁умоуп	-14473
былуеит	-14474
еицуреи	-14475
▁иахьар	-14476
▁иҳаман	-14477
▁сшыҟаз	-14478
▁хылаԥш	-14479
батәбара	-14480
шьамхқәа	-14481
ӷәӷәареи	-14482
▁аспиран	-14483
▁даагылт	-14484
▁ирыдҳәа	-14485
▁ихәыцра	-14486
▁сыжәлар	-14487
сотруднич	-14488
▁азҵаатәы	-14489
▁амассатә	-14490
▁атапанча	-14491
▁цәқәырԥа	-14492
▁ҩнуҵҟала	-14493
▁дыздыруаз	-14494
▁агәаҭарақәа	-14495
ип	-14496
итон	-14497
лымҵ	-14498
ниор	-14499
▁Тур	-14500
▁аер	-14501
▁аиу	-14502
▁кан	-14503
цозар	-14504
▁акал	-14505
▁дҳаз	-14506
▁рзаа	-14507
▁шааи	-14508
▁Ҷыҷы	-14509
нагала	-14510
ҳәалон	-14511
▁Сыбла	-14512
▁абнар	-14513
▁иабжь	-14514
▁ыжәны	-14515
фикациа	-14516
ҟарҵоит	-14517
▁Ацәгьа	-14518
▁лирика	-14519
▁рҳәара	-14520
▁шәеиба	-14521
▁ҳгәыла	-14522
▁аамҭатә	-14523
▁аҳәынаԥ	-14524
▁еихсыӷь	-14525
▁ицәырҵит	-14526
▁ишьҭыхны	-14527
▁уажәнатә	-14528
▁иҟазароуп	-14529
▁џьысшьоит	-14530
▁Уажәыҵәҟьа	-14531
пыҵахалаҩцәа	-14532
▁абиблиотека	-14533
▁дааныркылеит	-14534
Угәы	-14535
кыды	-14536
ҵысы	-14537
▁Иап	-14538
▁Кын	-14539
▁Кыр	-14540
▁атә	-14541
▁рзу	-14542
Гагра	-14543
былгь	-14544
мыӷәа	-14545
онаҵы	-14546
умҵан	-14547
цалан	-14548
ҭареи	-14549
ҵәқәа	-14550
ԥҟара	-14551
▁гәаӷ	-14552
ракгьы	-14553
укақәа	-14554
џьхьоу	-14555
▁Усгьы	-14556
▁аҩаша	-14557
ҵарызеи	-14558
▁арежим	-14559
▁иаатит	-14560
▁ҩбагьы	-14561
▁абаӷәаза	-14562
▁даатәеит	-14563
▁Нанҳәамза	-14564
▁рацәахеит	-14565
▁сшәыҳәоит	-14566
▁ҳгәылацәа	-14567
▁асахьаҭыхҩы	-14568
▁зегьынџьара	-14569
чын	-14570
ҷқәа	-14571
▁Адә	-14572
▁Иҿы	-14573
▁аль	-14574
кыдыр	-14575
ҵаҩра	-14576
ԥшаар	-14577
▁Аиҭа	-14578
▁далҵ	-14579
леишәа	-14580
мыжьуа	-14581
цомызт	-14582
▁Разан	-14583
▁ашәан	-14584
▁аҟама	-14585
▁аҵаҩы	-14586
▁дышьҭ	-14587
▁ишьап	-14588
Иаҳҳәап	-14589
ҭынраҿы	-14590
▁ииасыз	-14591
▁хдырра	-14592
▁ҷкәына	-14593
зыԥшуеит	-14594
лацәажәо	-14595
▁Даараӡа	-14596
▁акакәын	-14597
▁анхамҩа	-14598
▁игәырҩа	-14599
▁удыруоу	-14600
▁ҳагәқәа	-14601
▁азыҟаҵаҩ	-14602
▁ииасхьоу	-14603
▁мацарала	-14604
▁ҳабжьара	-14605
▁актиорцәа	-14606
▁акәӡамызт	-14607
▁амаӡамкәа	-14608
▁иақәшаҳаҭ	-14609
▁аҿаанахеит	-14610
▁иганахьала	-14611
▁ргәаанагарақәа	-14612
Кәы	-14613
ҵаҿ	-14614
ҳана	-14615
▁Сос	-14616
кульп	-14617
кәаба	-14618
хәтәы	-14619
ҳабла	-14620
ҳәцәа	-14621
ԥшцәа	-14622
▁Ибла	-14623
▁арыи	-14624
▁ибыз	-14625
▁усыр	-14626
▁ԥхас	-14627
ҟамызт	-14628
ҭаххаз	-14629
ӡакәан	-14630
▁ирҭаз	-14631
▁сқыҭа	-14632
▁сҳәаз	-14633
▁ҳауит	-14634
миллион	-14635
шьҭрала	-14636
ԥшаауан	-14637
▁Аҳашба	-14638
▁Шамиль	-14639
▁дамоуп	-14640
▁иабоит	-14641
▁изызку	-14642
▁акритик	-14643
▁аппарат	-14644
▁аҵарҩит	-14645
▁арҿиамҭа	-14646
▁еиҿкаауп	-14647
▁ҩынҩажәи	-14648
▁дақәымшәо	-14649
▁ахырхарҭаҿы	-14650
▁еиднакылоит	-14651
▁иахьанӡагьы	-14652
▁ҳҭагылазаашьа	-14653
es	-14654
ҩо	-14655
Ада	-14656
кин	-14657
ҭыз	-14658
▁90	-14659
муит	-14660
мҩак	-14661
▁рра	-14662
-1993	-14663
▁Сима	-14664
▁дхыр	-14665
▁ишар	-14666
быҭаны	-14667
ҳабыра	-14668
▁еилам	-14669
▁енагь	-14670
▁роман	-14671
лаԥшуаз	-14672
цәгьаны	-14673
▁гәыраз	-14674
▁иалҵны	-14675
▁ииашам	-14676
▁илшеит	-14677
▁ихахьы	-14678
сыжьуеит	-14679
ҭаацәара	-14680
▁иҟазҵаз	-14681
▁рынасыԥ	-14682
▁сҭахыуп	-14683
▁Мырзаҟан	-14684
▁лхәыҷқәа	-14685
▁дыҳәҳәеит	-14686
▁Жьҭаарамза	-14687
▁асанитартә	-14688
▁ажәыларақәа	-14689
Сеи	-14690
бны	-14691
гари	-14692
уаха	-14693
әмеи	-14694
ӡкәа	-14695
▁иит	-14696
нырцә	-14697
шьцыл	-14698
▁Игәа	-14699
▁Иҟам	-14700
▁Нана	-14701
▁адек	-14702
▁ареа	-14703
▁иахи	-14704
▁реиц	-14705
▁хыма	-14706
▁ҳәыз	-14707
зааиуа	-14708
хәыцын	-14709
▁Кьаӷә	-14710
▁Назыр	-14711
▁Рамиз	-14712
▁длықә	-14713
▁дыбна	-14714
▁ианца	-14715
▁ирцәы	-14716
▁шаҟаҩ	-14717
мырсыӷь	-14718
ҩаԥырго	-14719
▁Лаҵара	-14720
▁дыԥшын	-14721
▁еилышә	-14722
▁изцәыр	-14723
▁имаҷны	-14724
▁лхәыҷы	-14725
▁милаҭк	-14726
ӡырҩуеит	-14727
▁Мачагәа	-14728
▁агәырӷь	-14729
▁адҵақәа	-14730
▁ахҵәара	-14731
▁гәымшәа	-14732
▁снапала	-14733
▁амаининг	-14734
▁ашәарыца	-14735
▁аҵкысгьы	-14736
▁иахьгылаз	-14737
▁Арбџьармчқәа	-14738
):	-14739
en	-14740
▁#	-14741
вод	-14742
биек	-14743
рибу	-14744
рыгь	-14745
тиеи	-14746
хада	-14747
▁Анҭ	-14748
Иҟала	-14749
лиааз	-14750
циона	-14751
ҵанӡа	-14752
ҵәиуа	-14753
▁Аҟар	-14754
▁Миша	-14755
▁зқәы	-14756
▁лзым	-14757
▁снаи	-14758
▁ҳашә	-14759
хыҵуан	-14760
ҟәуеит	-14761
▁Алмах	-14762
▁аудио	-14763
▁даани	-14764
▁дадыр	-14765
▁дырҭа	-14766
▁имаҭа	-14767
▁лхаҿы	-14768
Ақалақь	-14769
▁Аԥхьаҩ	-14770
▁дааҟәы	-14771
▁дахьиз	-14772
▁игәашә	-14773
▁иҳәыит	-14774
▁ӷәӷәан	-14775
▁Саҭанеи	-14776
▁акәзаап	-14777
▁арантәи	-14778
▁дызшьыз	-14779
▁дыҟазма	-14780
▁еинаала	-14781
▁иаазгаз	-14782
▁ирыманы	-14783
▁Сангәлиа	-14784
▁анцәахәы	-14785
▁аџьажәлар	-14786
▁имаӡамызт	-14787
▁Афестиваль	-14788
▁Аҳәынҭқарреи	-14789
▁аиқәшаҳаҭрақәа	-14790
кок	-14791
фыр	-14792
ыжә	-14793
ҿыҵ	-14794
Знык	-14795
каҳа	-14796
лҵоз	-14797
ызма	-14798
▁АИХ	-14799
▁Дам	-14800
▁Как	-14801
▁Соф	-14802
▁Уаб	-14803
▁нҭы	-14804
бацеи	-14805
▁Арти	-14806
▁Маша	-14807
▁инас	-14808
▁Қьаа	-14809
кажьны	-14810
туратә	-14811
тәашьа	-14812
ҳәазеи	-14813
▁ҳаҟам	-14814
▁Наташа	-14815
▁Шьалуа	-14816
▁апроза	-14817
▁аҳәсеи	-14818
▁рмилаҭ	-14819
▁рыхәда	-14820
▁умшәан	-14821
▁хашҭра	-14822
▁адгьыли	-14823
▁еилыкка	-14824
▁раҳаҭыр	-14825
▁рыӡбеит	-14826
▁шәхаҵкы	-14827
▁абригада	-14828
▁ахьынхоз	-14829
▁иџьшьаны	-14830
▁лылаӷырӡ	-14831
▁рырҿиара	-14832
▁хлымӡаах	-14833
▁еилырганы	-14834
▁Очамчыратәи	-14835
▁асанкциақәа	-14836
▁лылаӷырӡқәа	-14837
▁+	-14838
ҭыша	-14839
ԥала	-14840
▁баб	-14841
▁дбы	-14842
▁узи	-14843
аамын	-14844
фырха	-14845
▁алаз	-14846
▁ӷьыч	-14847
▁ԥсыс	-14848
кәанеи	-14849
сшьеит	-14850
тәуеит	-14851
хәозар	-14852
ҩеиуаз	-14853
ӡакгьы	-14854
▁Адлер	-14855
▁гәаҩа	-14856
▁еиҩыр	-14857
▁ицарц	-14858
▁неила	-14859
▁тради	-14860
▁аулица	-14861
▁маҷқәа	-14862
Иахьатәи	-14863
▁бызшәак	-14864
▁поетцәа	-14865
Адырҩаҽны	-14866
▁алакәқәа	-14867
▁анапынҵа	-14868
▁аԥхынтәи	-14869
▁ҳаирплан	-14870
▁Екатерина	-14871
▁аанкылоуп	-14872
▁аџьаԥҳаны	-14873
▁имҩаԥнаго	-14874
▁сгәалашәом	-14875
▁аихьӡарақәа	-14876
▁дааԥышәырччеит	-14877
Иб	-14878
Кьа	-14879
оум	-14880
тар	-14881
уаҭ	-14882
ҿан	-14883
gram	-14884
бацт	-14885
шәак	-14886
лкаау	-14887
▁Иагь	-14888
▁аҳар	-14889
▁уаас	-14890
▁Ҳана	-14891
тамент	-14892
▁Дигәа	-14893
▁Закәы	-14894
▁андыр	-14895
▁еимаз	-14896
▁ҳәаак	-14897
жәдыруа	-14898
иаспора	-14899
▁ҳахьын	-14900
▁ԥшӡала	-14901
шықәсқәа	-14902
▁Иҩызцәа	-14903
▁Уеизгьы	-14904
▁ацәаӷәа	-14905
▁ашьхаҟа	-14906
▁аҟәатәи	-14907
▁еиқәных	-14908
▁заанаҵы	-14909
▁хыхьтәи	-14910
бораториа	-14911
▁Британиа	-14912
▁амаӡақәа	-14913
▁аӡбаҩцәа	-14914
▁ианиҵеит	-14915
▁азыҟаҵара	-14916
▁иҟалараны	-14917
гәашәԥхьара	-14918
▁акәымзаргьы	-14919
▁ақыҭанхамҩатә	-14920
24	-14921
Ми	-14922
выс	-14923
дла	-14924
ирц	-14925
шит	-14926
ԥӡа	-14927
вира	-14928
еиҵа	-14929
жәпа	-14930
кабр	-14931
қәаҳ	-14932
ҵәиа	-14933
▁Тер	-14934
Аҵара	-14935
▁Аԥҳа	-14936
▁ахим	-14937
▁аҿыр	-14938
▁гыла	-14939
▁илзы	-14940
▁шәза	-14941
ӡамшәа	-14942
ԥҟақәа	-14943
▁Инапы	-14944
▁иагьи	-14945
▁ишаҿу	-14946
▁иқәир	-14947
▁дадраа	-14948
▁Асасцәа	-14949
▁Дәрыԥшь	-14950
▁аҵаратә	-14951
▁доуҳатә	-14952
ԥыхьашәаз	-14953
▁Амаҵзура	-14954
▁маншәала	-14955
▁игәылацәа	-14956
▁ихаԥыцқәа	-14957
▁уахьынтәи	-14958
▁азгәарҭоит	-14959
кәызаалакгьы	-14960
▁„	-14961
фас	-14962
шьу	-14963
маил	-14964
чили	-14965
ԥшыц	-14966
▁ных	-14967
▁Қәы	-14968
▁ҳҿа	-14969
▁ҿар	-14970
Иҟоуп	-14971
гәеит	-14972
леитә	-14973
рҭынч	-14974
уџьар	-14975
фавит	-14976
ԥсыхә	-14977
▁иҵон	-14978
▁срым	-14979
ждантә	-14980
маҵура	-14981
▁аилан	-14982
▁рҿаар	-14983
▁саақә	-14984
▁хьшәа	-14985
паҟынӡа	-14986
цԥхьаӡа	-14987
▁атәара	-14988
▁аҭахны	-14989
▁аҵәҩан	-14990
▁лқьышә	-14991
▁хәарҭа	-14992
▁Алхратә	-14993
▁амҩаԥга	-14994
▁зҵаарак	-14995
▁ныҵакны	-14996
гәаламшәо	-14997
▁рдыруеит	-14998
▁аерманцәа	-14999
▁артистцәа	-15000
▁ирыҵаркуа	-15001
▁цхыраагӡа	-15002
▁аклассикатә	-15003
▁Ем	-15004
▁Рхы	-15005
ортал	-15006
сҭарц	-15007
ченко	-15008
ҽырбо	-15009
▁Егьы	-15010
▁Мсым	-15011
▁дизы	-15012
▁иаур	-15013
▁иҿан	-15014
▁утәа	-15015
▁ҵаӷа	-15016
зыжьыз	-15017
ҵәааит	-15018
ԥхьқәа	-15019
ԥшышьа	-15020
▁Џьота	-15021
▁Калда	-15022
▁Молда	-15023
▁ирбаз	-15024
▁ирныр	-15025
▁иҟама	-15026
▁лҿаал	-15027
едицина	-15028
▁Уаҳаид	-15029
▁Хаҭала	-15030
▁ахарџь	-15031
▁еиқәым	-15032
▁иахәҭа	-15033
▁қырҭуа	-15034
▁аԥшьаша	-15035
▁иҟасҵаз	-15036
▁иҿырԥшы	-15037
ринципқәа	-15038
▁наџьнатә	-15039
▁уажәыгьы	-15040
▁цырцыруа	-15041
▁агәашәқәа	-15042
▁агәымшәара	-15043
▁ԥсҭазаарак	-15044
▁амраҭашәара	-15045
идемиологиатә	-15046
▁иҽааникылеит	-15047
:10	-15048
вым	-15049
вҵа	-15050
уна	-15051
▁ьа	-15052
жәын	-15053
зуаз	-15054
мааҭ	-15055
мшын	-15056
ӡыӡо	-15057
▁Вер	-15058
▁Кур	-15059
еиԥшу	-15060
▁агьа	-15061
▁знеи	-15062
▁ихна	-15063
▁ҵуан	-15064
ганқәа	-15065
саанӡа	-15066
сҭахым	-15067
хӡыӡаа	-15068
ԥыххаа	-15069
▁алхны	-15070
▁ахьар	-15071
▁ахҟьа	-15072
▁аҳәыс	-15073
▁инаҵа	-15074
▁мыцхә	-15075
▁хшара	-15076
гылартә	-15077
гьакоуп	-15078
ланыҟәа	-15079
рыцхраа	-15080
▁Афорум	-15081
▁иааным	-15082
▁асессиа	-15083
▁аснариа	-15084
▁иаарԥшу	-15085
▁маҭәала	-15086
▁уажәоуп	-15087
▁алхыҩцәа	-15088
▁ахашәала	-15089
▁ажәжәаҳәа	-15090
▁дааныжьны	-15091
▁иԥхьаӡоит	-15092
▁рҭоурыхтә	-15093
▁хацнаркит	-15094
анҵа	-15095
жәык	-15096
ӡӡеи	-15097
▁Гьа	-15098
▁иӡа	-15099
▁ҳаг	-15100
нымхо	-15101
хатәы	-15102
ҩанга	-15103
▁Алоу	-15104
▁длас	-15105
▁изны	-15106
▁сцон	-15107
арагьы	-15108
куазар	-15109
мацәыс	-15110
ҭантәи	-15111
▁Насыԥ	-15112
цхрааит	-15113
ҳәаратә	-15114
ҵәаразы	-15115
ҿаҳәара	-15116
▁Арҵаҩы	-15117
▁аҩуеит	-15118
▁жәеиза	-15119
▁изыҟам	-15120
▁ихшара	-15121
▁еидгыла	-15122
▁иазхәыц	-15123
цәажәозар	-15124
▁диԥылеит	-15125
▁иавтомат	-15126
▁иудыруаз	-15127
▁ицхыраара	-15128
▁ахьынӡаҭоу	-15129
▁уаҩытәыҩса	-15130
2).	-15131
уӷа	-15132
хов	-15133
▁34	-15134
гәыш	-15135
ҿықә	-15136
ԥсым	-15137
ардан	-15138
гәыды	-15139
мыхәа	-15140
хиара	-15141
хәуан	-15142
▁Алма	-15143
▁Дума	-15144
▁Кыҷа	-15145
▁аԥын	-15146
▁еилу	-15147
Уаанӡа	-15148
былуаз	-15149
тәхеит	-15150
ӷәаниа	-15151
▁Аинар	-15152
▁аарыл	-15153
▁ааҵра	-15154
▁еилеи	-15155
▁маҷын	-15156
▁шьахә	-15157
▁ҟазар	-15158
шәароуп	-15159
шәозшәа	-15160
ҟьантаз	-15161
▁Аҩымҭа	-15162
▁Кьасоу	-15163
▁аректор	-15164
▁ауамызт	-15165
▁ахәлара	-15166
▁Аҵарауаҩ	-15167
▁араҟагьы	-15168
▁аҳасабыр	-15169
▁документ	-15170
▁ԥҟарақәа	-15171
▁Абҵарамза	-15172
▁рхархәара	-15173
▁араионқәеи	-15174
▁мҩаԥысраны	-15175
an	-15176
Ум	-15177
Ауа	-15178
мыц	-15179
▁рр	-15180
Хыхь	-15181
баиа	-15182
леиа	-15183
дәына	-15184
хыҵын	-15185
ҿынӡа	-15186
▁Имаҷ	-15187
▁Шьаа	-15188
▁ақыҭ	-15189
▁дышь	-15190
▁ишыб	-15191
▁лнап	-15192
▁ҳҟны	-15193
▁ԥсҭа	-15194
шьаауа	-15195
▁Астол	-15196
▁Енвер	-15197
▁Леиба	-15198
▁Сабду	-15199
▁азнык	-15200
▁аиури	-15201
рацәала	-15202
цәомызт	-15203
▁дышцоз	-15204
ҩаԥыргоз	-15205
▁Гьыргәал	-15206
▁Даҽакала	-15207
▁афактқәа	-15208
▁ишәҟәқәа	-15209
електронтә	-15210
▁абӷьыцқәа	-15211
▁арӷәӷәара	-15212
▁дҩаҵҟьеит	-15213
▁инапхгара	-15214
▁гәахәарыла	-15215
▁иадырхәоит	-15216
▁ицәажәашьа	-15217
▁цәыббрамза	-15218
▁иақәыршәаны	-15219
▁иԥсҭазаараҿы	-15220
1).	-15221
мыхь	-15222
ргәы	-15223
ҭаша	-15224
ԥаан	-15225
▁Анж	-15226
▁кор	-15227
ҵалак	-15228
▁Азиа	-15229
▁Марк	-15230
▁ареп	-15231
▁иаза	-15232
▁рцәы	-15233
▁усыц	-15234
▁факт	-15235
гәылиа	-15236
дыркит	-15237
хигеит	-15238
ццакит	-15239
ҟазҵаз	-15240
▁Иџьоу	-15241
▁амҵәы	-15242
▁зыҩны	-15243
▁ианду	-15244
▁исзыр	-15245
▁иҭәыз	-15246
▁фымца	-15247
▁ҳпоет	-15248
▁акәаша	-15249
▁алҩаҵә	-15250
▁журнал	-15251
▁иаганы	-15252
▁иорден	-15253
▁рҭыԥҳа	-15254
▁хадаҿы	-15255
▁ҽакала	-15256
▁ԥсаатә	-15257
▁Апостол	-15258
▁аҟнытәи	-15259
▁ипатреҭ	-15260
▁ихыҵуан	-15261
▁сгылоуп	-15262
▁шиҭахыз	-15263
▁ԥсабара	-15264
▁Лабахәуа	-15265
▁Паҷкәыкә	-15266
▁еиқәырха	-15267
▁шьақәгыла	-15268
▁Ажәеиԥшьаа	-15269
▁аамҭалатәи	-15270
▁ижәдыруеит	-15271
▁Шьамтәылатәи	-15272
▁ареспубликаҿы	-15273
15	-15274
30	-15275
рд	-15276
вен	-15277
сык	-15278
хыҭ	-15279
тива	-15280
ԥсоз	-15281
▁300	-15282
▁Рам	-15283
▁аӷә	-15284
▁ҭӡы	-15285
бжьыс	-15286
▁Аԥшь	-15287
▁изза	-15288
▁нага	-15289
▁сцар	-15290
▁умоу	-15291
▁ҩада	-15292
ааԥшуа	-15293
тивқәа	-15294
шәазар	-15295
ҭахыда	-15296
▁азура	-15297
▁иаԥну	-15298
▁кьыла	-15299
Аиааира	-15300
цәажәом	-15301
▁Кремль	-15302
▁ирылар	-15303
▁иҳәоуп	-15304
▁рылоуп	-15305
жьуамызт	-15306
шьақәгыла	-15307
ырҭагылаз	-15308
▁Аҭакәажә	-15309
▁абасеиԥш	-15310
▁ахьгылоу	-15311
▁диаспора	-15312
▁аиҿкааҩцәа	-15313
▁афинансқәа	-15314
▁жәаҳәарада	-15315
▁иадҳәаланы	-15316
▁иакәзаргьы	-15317
▁иазгәеиҭоит	-15318
»)	-15319
▁B	-15320
Аид	-15321
гог	-15322
киа	-15323
ымч	-15324
аныл	-15325
бжеи	-15326
вист	-15327
шана	-15328
ҭәон	-15329
▁дма	-15330
▁рца	-15331
Ахаҳә	-15332
гӡоуп	-15333
есант	-15334
иашан	-15335
мҩахә	-15336
накит	-15337
▁узын	-15338
▁хьӡи	-15339
ааимдо	-15340
лараҿы	-15341
ҳәарыз	-15342
▁Атәым	-15343
▁Елисо	-15344
▁дызха	-15345
▁еицла	-15346
▁кьаҿк	-15347
▁рхьаа	-15348
▁уцаны	-15349
ганктәи	-15350
▁даашьҭ	-15351
▁зныкыр	-15352
рыжьуеит	-15353
▁аахәаны	-15354
▁бзиагьы	-15355
▁иашьҭаз	-15356
▁уалԥшьа	-15357
▁ақалақьи	-15358
▁рыцҳарак	-15359
▁цәгьарас	-15360
▁Ленинград	-15361
▁аҟаҵаразы	-15362
▁даҽаӡәгьы	-15363
[...]
